node {
  name: "lstm_1_input"
  op: "Placeholder"
  attr {
    key: "dtype"
    value {
      type: DT_FLOAT
    }
  }
  attr {
    key: "shape"
    value {
      shape {
        dim {
          size: 1
        }
        dim {
          size: 140
        }
        dim {
          size: 3
        }
      }
    }
  }
}
node {
  name: "lstm_1/random_uniform/shape"
  op: "Const"
  attr {
    key: "dtype"
    value {
      type: DT_INT32
    }
  }
  attr {
    key: "value"
    value {
      tensor {
        dtype: DT_INT32
        tensor_shape {
          dim {
            size: 2
          }
        }
        tensor_content: "\003\000\000\000\000\002\000\000"
      }
    }
  }
}
node {
  name: "lstm_1/random_uniform/min"
  op: "Const"
  attr {
    key: "dtype"
    value {
      type: DT_FLOAT
    }
  }
  attr {
    key: "value"
    value {
      tensor {
        dtype: DT_FLOAT
        tensor_shape {
        }
        float_val: -0.10793741792440414
      }
    }
  }
}
node {
  name: "lstm_1/random_uniform/max"
  op: "Const"
  attr {
    key: "dtype"
    value {
      type: DT_FLOAT
    }
  }
  attr {
    key: "value"
    value {
      tensor {
        dtype: DT_FLOAT
        tensor_shape {
        }
        float_val: 0.10793741792440414
      }
    }
  }
}
node {
  name: "lstm_1/random_uniform/RandomUniform"
  op: "RandomUniform"
  input: "lstm_1/random_uniform/shape"
  attr {
    key: "T"
    value {
      type: DT_INT32
    }
  }
  attr {
    key: "dtype"
    value {
      type: DT_FLOAT
    }
  }
  attr {
    key: "seed"
    value {
      i: 87654321
    }
  }
  attr {
    key: "seed2"
    value {
      i: 3282285
    }
  }
}
node {
  name: "lstm_1/random_uniform/sub"
  op: "Sub"
  input: "lstm_1/random_uniform/max"
  input: "lstm_1/random_uniform/min"
  attr {
    key: "T"
    value {
      type: DT_FLOAT
    }
  }
}
node {
  name: "lstm_1/random_uniform/mul"
  op: "Mul"
  input: "lstm_1/random_uniform/RandomUniform"
  input: "lstm_1/random_uniform/sub"
  attr {
    key: "T"
    value {
      type: DT_FLOAT
    }
  }
}
node {
  name: "lstm_1/random_uniform"
  op: "Add"
  input: "lstm_1/random_uniform/mul"
  input: "lstm_1/random_uniform/min"
  attr {
    key: "T"
    value {
      type: DT_FLOAT
    }
  }
}
node {
  name: "lstm_1/kernel"
  op: "VariableV2"
  attr {
    key: "container"
    value {
      s: ""
    }
  }
  attr {
    key: "dtype"
    value {
      type: DT_FLOAT
    }
  }
  attr {
    key: "shape"
    value {
      shape {
        dim {
          size: 3
        }
        dim {
          size: 512
        }
      }
    }
  }
  attr {
    key: "shared_name"
    value {
      s: ""
    }
  }
}
node {
  name: "lstm_1/kernel/Assign"
  op: "Assign"
  input: "lstm_1/kernel"
  input: "lstm_1/random_uniform"
  attr {
    key: "T"
    value {
      type: DT_FLOAT
    }
  }
  attr {
    key: "_class"
    value {
      list {
        s: "loc:@lstm_1/kernel"
      }
    }
  }
  attr {
    key: "use_locking"
    value {
      b: true
    }
  }
  attr {
    key: "validate_shape"
    value {
      b: true
    }
  }
}
node {
  name: "lstm_1/kernel/read"
  op: "Identity"
  input: "lstm_1/kernel"
  attr {
    key: "T"
    value {
      type: DT_FLOAT
    }
  }
  attr {
    key: "_class"
    value {
      list {
        s: "loc:@lstm_1/kernel"
      }
    }
  }
}
node {
  name: "lstm_1/recurrent_kernel/initial_value"
  op: "Const"
  attr {
    key: "dtype"
    value {
      type: DT_FLOAT
    }
  }
  attr {
    key: "value"
    value {
      tensor {
        dtype: DT_FLOAT
        tensor_shape {
          dim {
            size: 128
          }
          dim {
            size: 512
          }
        }
        tensor_content: "\337\305\200\274L\000\004\275q\366\323\273\203\337\327=SU\014=\365\177\216\273J6\273=\231\n\337\274\324t>\272\357&\303<J\207\006=\262\"\215<Z\343\243\274\005\007h;\343\216k\275_\217Z<UIx=\346\2049\275\223\377)\273$4\3108\3437w\274r\211\227\274\033Q\t\275\240k\234\2740\256\217\275\315[ \2751\224\243<\277\315\300\273\217m\223\273\215\357\277\275\305z\275=;\277\246\274\244\024z\273\332\313r=b\271\265\274\264\350\221<A\226\323\274\344\323\203\273m6T\274\214\323L\274\336\315\331=\350\272S\275\036`\027\275\021\025\250=\326z#=5\277q<21(=\325i\010<\301\256Y\273\276\t\362;\247>\001\275\233\345\235=o\326\267\274;S\320;w:Z<\203\300\217\275\244\331=<\311\245E\275\336\244-=n\323\214\274\270\026\344\274\363\335\233=\326\274 \274\377|\364\272M\037j\274o\345\233\272\302\304\362<NK\343<\267p\036=4\020g=\014\367\322\275d\377\244\273\301C\256;Q\332\030=S\350l=\337\264\216\275\033\027\225;\217\'\313;\000\014\226\275\335y,\273}\311\374<\351ZE<\222\352\332\274K\031y\275\211\366\344<$L\206\275|R^\275\334\263\256=\336\366\224<=\024\'=Q\027\247<\375\264\226<\335\371\001\276\225%1=\203\343\217=wB\212\273[4\264=\240\263K=O\3109\275\320\026\250<\030L\357\274F\nt\275uxW=\312\002=\275\231uK\274\273\333\307<\306\347\027=.?|<\333Ub=\261\020\037\275\267\232\373;@W\205\272\246\336\204<T+\024\275P\205{=\314\313\307\274\365R\034\274s\333\234<\272\004\302<I2\237;\333\316\306=>\341\202<\007p\216=\226\2361=J8/\274\223\204\225<\332\016W\274\256.\365\274\2649C\2758\007f\275Uq\300\274\333\211\016< \257\271<\352\356\010;\247\212\036\274\200m\001\274\004m\312\274\006h\031=^\2579<tdY=\2655\223<\255\372w\2713B\232\275ieO\275a\016\332<\366I\210\275\r\364\372\274\324\325H\273k\212\250\275Cq\305\274\005W\370\274\376\266J;\216mk=nw8\275BZ\241\2756=7=\326\245{\275\356&M=\204M\320<l\t\013=\216y\207\275x\013\347<\264\215U=\226\001\017<\212\020>=\035ak\275\372\007\355<\035\004\325<[\273\220<\237\"Z<\322qf\27594\230=@\207\210=\367\225\177\274\0205\257\275%i2\274\315\265\331\273\317\226S= \257t<\212\363P\275\340\255\257\275j;\010\275\3457\304=>\220\223<\324H\256=aNY\275(\331\213<\317?\200\275X\243\021\273c\274\253\275A\022\220\272\033\253P<\010g\000=Ip\327;\265\020\210=U\010\t;\020E\241;\210\2746=\364<\342<\377k\242=\227\314\326;4\351\255<m\352\250=\000\265\022=\267\200`\275\010XQ=\366\303\361\274\262\300\325<\221\365\204;9\211\262=\276{\334\273l\273\270\2754\017\2569\2008&=]Y4;\315\246\026=x\213\210<1>M;\264l(\275b(B=\357\271\345\274t\333w</_\"<L\247\222\275\311w\300\274|\036\233\275\312\260\220<\001\323C=\030\245\322\274\335\200\360<e\325\022<\031\262\033\274\020$k=\016\005\"\274\002\354=;U\350\262\273F\240\371=ZT\251\275\260PA;\254\\\302<\375:l\275 \204\252=^\342\026=\006d9=\212_\260;m\223#=!L\031\275W\366\276\274\274qC\274\263\377\026=\225\025\225=gi\277\275\317\344`=\362\020O\275\026\202k\275\177\317*\274L\337M\275\225!\242\274\316\234\004;\300C\r\2746\275\202:\010\\\037<\230\206\'<:\021\242<\366\263\007=\363\311\305<\323\177\013=\2768\342\274xQ\010=\313h\013\274W2D\275\245~\225\275\267:\214\272117=\335\003\215\275Q\241\276=?\003\367\274\376\252T;=Y\306<\206\225\321<\\\034\224\274\221\007\201;$\265\020\275bV-\275\301\010\247=5\352\\=\313\000\235\274;dD\275\375L\004=}kS=}\274\244=\361-\277\274\000\242p\275\203\345\014\275\274\000?=\377\343I\271\000D%=\017T\252<\325!\275\273e\271\214<\027\311<=\345\220[=\240`*<\337\240 =i\nf<s\300I\275G\365\200:\235:\272\274s\316\213=\302\354\023=\203\026\322<\206^\032\275\267\257\374\274\243\250\007=\371\210\206=&a\026=\373\013\334;\2457\224=\3620\n>\370\216H\275\230\320\272<\000g\247\274\244\034\332\273\r\3244\275V\025\330=&\261\262\274\252v\273;v\2038=\231\004(=\320\003\243=\255\321\301\274K\355^=U\372\220\273\212a\334=DM\324\274\254\371;\275^&l9F\235g\273-I-<\224\371\242=\0258\215<H[\256\274\030\304g=[Z,=A\002\332<\224(\217<\3547f=2Q\024=P\303E9`G\"=TMD\275\257)S=\022\377\277\274\243\311\203\274U\002\301<\001\264\332<{D\303<\372\263\261\275\255\230j\275\341*(\275\346\2508<\221\031F\274\205#S=\237\177+\275s\252\207\274y\317>\275\245\246\210\274\"}\242<|\210K\275B\026\313<\016\"\260<O\333\371\272=DT\274\263\n0\274\276\360\346\274~\235\272<\311\360U\275\017\354m=x\323\373;c\376\264=\257!\204\275Rb\271=Z`\332=,-\242=\371\255\347;O\324\220;\351;\233<p\016\267\274g]\306\274\342\246\233\274\032\267t\275a\375w\275]C\212:\371\224\222=\201o\356\274#-m\275\254\232#<m$\247<W#l\273`\306&<w\205\200=\300\352(\2752\016\307\274\240\261\023=)\274\257<L\377\355\272\310\220\345\275\341\370,\275\n\247\030<\225\306\177\274\350p)=C\267\334;l\213\020\274~[\225\273\304\217X\274\370B\006\274\360\207/=\0258\205\2742wl=*\371\317\274\363\210&=>\251\270=+\347\212\274@y\231<\345\030]=i\333V\275-\221\227<\314LL\2748\307\212\274\2428a<U-\242=\260\2420\275H\224`=\377\304\266<\264(3\2754\204\331\274f\211\023\275\324r\230\274\226\327\256<\303\312\222\275\r\005\326\274\030\025\257\274\030\017\302<\224\215\320\274\267`\017=\377\010\217\275\241b\032\274\206\226w\274\231\005X=\221\241\245=\376~\036=\3236C\275\037\252\221\275\351x\304=`e+<\364m\216<\027\037D\275\304\220\227\274\306<\340\274\374\004\246\274T\212)\275\234*\357\273\017\335\031=\300\261\352<NOZ\274\003\025\350<=\216(\275\241\371p\274\317?\372<T\'\240\272\322\365\216\274\300\345\033\274\300\226\255=\376\014m<C\361\316\275\343R\021\275\353\n\022\275\267R@=\264\3477\275:c\020=f\342N\275\210\261\262<\3671\321\273`Z>\275\223J\340\273T\220y\275\241\\\254\275\013\267B\275\343;G=\272\017[\2751\222K=L\311\304\275q\236h\273O\035\017\274\277\006\351;\241\212\334<\201q\206\275F\313\"\274O.\346\274H\315g<\366\251\351<\346\332\265\274\370\273\372\274\312\366\002;\t\2426=8YS\274\275Z\314\274\33025\274TM8\275\344\322\007\275-5\214=.\335@<l\210\207=>^\235=\353\370)=jUx\275!\224)\274\330\245+<*c\013\275o\rl=\021q\371<\2012\327\273\340\275\230\275db\305<\021\255\217<\305\222o\275%@/\275(FP\274\271+f=\340!\307\275\032\370:\274\350l\230=\200\315\027\274\255\326o=\345g\363\274\364\t\215<\3530u\274\014`\354\275KwV\275\225\350R=\266c\206<Z\215\302;\245WP\274\362\302\311=\331\273\340<\374\215\343\274\331_\334<\367\226\216=a\204K=\244\263\334\273;\2424\275\303Q\217\275\260\276\010=\347\315\220\274\312\240\001\274M\320==_\241\260=r\226\212\274\004\203\230\275>\0359=\205\210\t\274=\232\313<W\030\222;M\007U\275?5a\272}3\254\274\247x\023<\3224\274\275\003\333\215=\334\201b\272\t\222?\275Mv\361<\037\256\230\274E\000\"=FP5=W\253\237<\331\\\303\274\022O\200<\007\356D<\372N\345<k\037\241<\001Hn=U7\020\275\205\311\330\274l#\227\274\327\305&=\313\216\226\275\210\360\200;\254\376\235\275\346\266\014\274I\375\'\275\261S>\274\007y\216\275K\361\221\275\226X\232\275Xjv\272\303%;=\251{\257\274f\336\203<E\2415=&\374\206\275\214\261\003\276\306\036\'=u\216\202\275:\362\270\274E\026\321\274E\014!=>\276\317\274\031\3046\275\273\221==Z\371\231<G|`=\224m5;>\006X<\222\234x=\025,\227\271\021\254?=\"DI\274\037\326G\274\312\240\001=\342\203\215<\337}s<\251\301\245<~-\022\274p\332=\274\206\031v\271\247\205p\273\211&\031\275\253&\353<\251\276\227<y\367\376\274\361H\347;\002{\342<\235\022t:\356!2<\201\"\023=\275L\001<S#(<\035\342\232\275Z\254C\274\"CL\274\337\231F\2754\003\026\275\006\326[\275R\351\006\2745VA\274%\326\032=\351F\260\273\254\367\226=\037\330\272\275%J\321<W\017\226\274\375\311p\274\331`\200\275~ST\275\270\010\254\275\016q\376\27343\224<m\225\033=\366\304\217<\234f\301\275^\236\212\274\200\267\362<re\340<\323\033\004=\\N\215=9\310A\275\227\334\305\273\031\272\251\274\215y\352\274v#:\272\302y\344<\272\212@\275\345V\017\275h\363\227<S\n\200\275\205\345`\273|\206\n\274\236Z\336= \035\332\274\254\257I\275\2171\215\275\300\213\010=\320V\213\272\373\336\035\274\321\036\203=Xx\201\274\027\177Z\274\342{\260<\332\347\202\275\003\304?=\376\233;=d\360\343<w\264\226=\324\353J;\255\006\254\274q\320e=Q0\032=\317U!\274\220~:\274\211\000-<o\021\210=\262\206\020=\034\346\305=n\2053=|\311}\274\313X\243<\304o\211\273\030\037e\275\302\251\317<\326E\236<\362\325\302<\024\2741\274\007\266P\275l\256\330\272\213\251P\274|\354\275\275\037\364$\275\305@\367<\327\001\033\275\263\313\204\275\'\334\005\275L\3655<\330\340\317<\276\356\006\274\237\260F\274\237\227\226\267\277$h\274:}\337\274c\014q\273\2725\217<T \001=U\212\222\274bqb<\013\365\372<\335\243\231=\002\021\224<\334`T<\020\352_;\003<[<\273C!;\3066\032>\271\233\014=\225a\357<\017Bb\274\227C\273=\010\351\037\274\317n\t=\032\260\210\274\021\r\033\275\346\331\221=f\ny=Qz\371<\236!\352\274 \345\254<\2142>=0y\225<v\311<\275\221X#<i\321\271<\335m~<\262\024W<\256\215\t\275\244\254\007\275[fD\275^\010\350<\3162\230<x\357\222;\022W\343\274\232\220\276\2746\214\275<\267\374\252:\ro\217\275k}c<\247}9=YC\245=J\321&\275QH\236<\331\367\375\274\317\010\005\275 v\221=\206\324\363<\313h\217\2757:#\275\202\002\032\275:\301d<\310k4=\026\363\254\274\262\033\257\275\236\365I\275g~w=.\216g=A_2\275\267\206$\276\324\212O=*\216\274<\237\232\024=\202\254\025=\252\037\225\27516/=H\233=\275\235R\262\274\3436\034=\372\243\363<\270Q:=\233E\240\274\355o1\275ZQs=\013e\270\274_\254\024\275_\207\326=\204\367\246=\032\0344=\263=l=C\314\t\275\234Dd=\371*\311<\224K-<8\0236\2733 \003\272\3554\026\274\205\372Z=\304N\004\275\000\307l=\210\357I\275\017\'j=\360T\021<\372\207\314\274\217>\200\275\256\217\331<\240\033\024<\000 \322\274\324\3024\275\177\2221<\021\306\t=?\343\"\274]U\016=#\227_\274\276lU=\324\001\226<\350\234{\275\316S\241\275\257}\224\274\323\r;=o\312\377=I\376[=\024\262d\273\000\030\214=\004\222\r=[\214\"\274\343\307\240\274~0\\\275\307A\036\275\336\245\315\273W\254\231=\262\367*\275S\007a=@\000\t=/\273\206=\017\256\334<\216\205\003\275\374\337`\274>e\002\274\372N\363\272\023\357\335;\323{\030\275\031\336\256<\005\204\017=\222\001\035<\211\024\005=\344A\371<\335p\034\275\325W,=\326\376z\274-\332\306\274\310X\025\275\204\275\300<\366\343\206\275g\332\215=}\376\312<\303\200>\275\241*\310<\360\037\007;\033\207\342\274\306\200\304<\335\000o<b\221\373\274\251\305\004<2\375\265<\360\303u<\237\206\243=~\255\367<\203\353\255;\363\345\014<\034\350P<<O\331;\246%\344<\231\266\017\275\331\330b=\216L\274=\177\260\032=\321C\016=\322\0027=\253,]=\000\364\310;\337\213~\275<\007\327\274\360\331\036;\303\001\355\274d\321\202\275\366\023%:\236\313\034=\\}\377\274\350e\233\275N\372\273\274\235?\256\274]\rM\2756\364\307=\023\333*\274\324\235\375=\031\351\217\275emO<2lL\275\341\3525\275\343G\033\275\313\241\350\274~!\201=F\302\220\275+\3407;\251m\212=\r\367\310\274=\002\006<\333\346\005\276\247G\211\275l\033!\274\330\232\321:\334\344\342<\ruM\275\014*\312;\254\214\337<X\361\022\275\337&\365;\334\026\217\275W\226\274\275\342\014\006=\325\363\222<\2069\276\274W\007\225<\364GN\275\344\255\265\273\227\233t=\031\376\025=op\362;\016-\201<\272\201\250<\341`\005\275\347\266\340\274O\re=0,\221;\340C\245\2745b\377\274L\355\022=\037\0221\275F\303s\275U\252\373=r\351\266\274]\215\332\274\364.\007=\357z@<#\356G<\315\245\272\273\026=\200=LJ\216;c\007\014\275\247\243%\275a\245M\274\'\\\223<\340\240\226\274P\227`=q\351\030=\235\001\236;\331\025\266\275\006?\030\275\345\022H=\237k\017=&;\025\273\201c\300<\370\260\322\272\353\323Z=\205,\361<\022\t\344=!E\216<\312\347\231\273\216w\221\273\022\356q\274)\355|\275\315\014\026\274c\271B\274\365;t=;R\237<k\2129=/4\335\272\021>\203\274}\330\362\274\271\2052=\313\035\013\275\312\361\234\275\033\236\375\274\235\016\332<\204\001\326\274h\323\241\275\030\365p\273\367\337\016<)1Z;\264\027\005=\242m3\275{\010\036\275\361\264\177=\027\213s\274\347\346\260\275Q\035@<w\316\235\274I\224 \275\213\005\260=Bm\363\274\372\350\352=\235R\232\273\350\010R=\267\263\246\273\3230F\275\245\3722<\273e\024\275\270\311\032\275\363\224\355<f\222\230\275\217\004\310\274\367\233\244\275k\001;\275CEb<\357\r\222=\223^\311\275\213\347I\273\226G\256=a\313%==#\216=\255ia\275\014\363\253\275\241\\U=\207J0<\255\344\346<|\025H=\346\311\316<IV0=\246\221i=\242\200J\275\322\261v\275\3531[\274Z\261#\273\367?>\275^1\272\275\214\233\344;\364\213P=k\211\000\275\217\344I\273\242\327\034<\027\005M\274\205\205\237<z\335\347\274\036\273L\275\314\362\200\275O\301\230\275Hj\210=]Rb=&\262\201\2744y\265<\025\225\362\274\001\304)\275\373\3711=\025\266C<\337\240&\275{\032\245;\324\337\223=\034Y\005\274\224\362m=cW\227=\231\366i\275\301F\220=][\261<\324\314\213<\327\031T\273\004\014\252\274F\002\353<\272.C\275\227\307\305\273X\343\356\274\272^\n\275\250\246u\274\276\226\252<\350V\344;.\325\241\273\033+\000\275\321\n\301\274\350\321\342=\261\026?=Q\330\313\275\352I\243=G\231E=\303\305\333<\'\253\244<\373\303\311;39\\\274.:t=\267\331\330<\225\362\032=\304cK=Dd\014=!\240\345\274\377\256[\275M\215}\274%\241p=mu:\275$\222D=(d-=k\322\010\275s\037\t\275\220\316\241\275\234\216,=\236\3512<\204X\213\275\324\374\375<\033=\207\2745\350\033\275\247\311\200<n\344=<\254\302R=\306e\230\275\215\351G<J\2426\275\257\352c=6G\364=\235\232\302=6\t\266;\206x\016\274QV>\2746\311\243=u*\215\275_(u8!\334\014\275\220O\"=oi\024=\305\251\206\273*7\026<\365\rh\275\321\240\351\274\242\342!\274*\314M\275\302\360\307<\005\031\272=\021LW=\020\207\252<\231\326\022\275Q\0266\274^l\272<\307cn\275\327\337\305<\207u0=*\255\251</j\250=t\323\202\274\272!\362\275\020Y\240\272m\243\022=\361)\000=\2553[\275\251\245\357\274J\001,\275\037\327\360<_?R=\342r\232<>r5<\013\324a\273\367\322\230\275*?\346\273\251\376?=Y\'\n\275h:\342\273aei<\230\233~\274~2\206\274\016\323g=\217o\030=\366\357\234;\270\242\202=\347\270Q\275\220\000v\274\301\244\332\274\035\226\022\275O=u\274I\374\315<\032\310\256<\266R\004<\005\205\210<\336\026F\275\300}\240\274\301\021\334\274aY\276\275\\S\226=@\215L=_4\030\275\203I \275O\220\212<\0339\305\273S\202\317\273&\276\202=\343\243\247=\357\001\010=RT\313\274T\370\301\273\031\321\320\275\013\034Q<t\026\347<N\324\266;\223\022\326\275\007>W=\366\317.=\314f\222<]O\307<\306\272(\274\001\233?=n\027V=Z\212\305\274*\030\340\275\273B\017\275[\222\354\274+\014\215=\264\222\005\274AK\247\273R\246\354<%{?\274\265{\314\274\031?%=}y\017\275\253\323C\275\024\227\025<zK\314<\366\227\026=w\244D=\246lL\274\3039\022=;\022i\275u\001\351;\031\250T\275W+\272\274\317y\247<o)1\2752Vb\275a\002/\272f\"\274\273~\364\220\274\001G\273\273\201\014\310<\304\271\273\272\032\263\245\274-\337\332\273u\203\212=&S6\275|U\370;vIJ\275\177\001\313;M\274g\275\302\t1\2748,\303\273\014\262\325=\324\r\247\274\016\003#=\001\312\327\274\310\276c<\366\006\272\2749\375\210\275\312\246\201\275\300f4\274\252\000N\275\207\301\210\272s\247\236;DqF=y\355\262=\301\222!=Z<\237<\345\207F\275=\322[\275!\346\257<\031\265\027\275i\210\376\273\341{\370<H\362|\274\001\330\033=ka\237=LF\203<\313\232\225=z\377\232\274q\3071\275\331\243\347\273\000\333\351\274X\232A\275*\021\270=\\\344\225\275\315\306\233\274\311\251\371\2752u\037=\356K\017\274\255\300\214\275\234BI\274\330\230\377<\227Q\264;\227{9<\336\025\205\274\360N\234\275\265\334\\\2741\024\t\275O\273^=\274+\256:\235\360A\274\307\3217\274G\242\255\274\267\311\351=\261\271\242;\245\303O=T\242F=I*\240\273\262\2620\272r\345\342=.\337]\274\224C\003\274\250S\231\272\037\021f\274\321\217=\275\251\271\206<P\227r\275\200\200k\275\206>&<a%P<\327\023\244\274e\032\213<\242\373\371<\247\001\036\275\340\020\210<\263\374\260:\363\324\274;\347\334\332\274\340\235\300=\223\275!=S\263n\274\206\372\270\274\332\036\007\275\275W\374\274\231}\252\275\256\3761:\305\213\272<\325L\241<\372\310\247=\371\301\356<\014C.\275C\207\305<!\262|\274d\001Z<BV\007\275&\335k\275\032\365(=\315i\016=\335L\315\274\227\212\357\274O\377\003=\014\004\373\274a\017_\275\013iA\275?p\322<\332\003B=J6\305\274\256\324\016=\333\337o<\347\364\264<\272\220F\274E\215\326\275\314J?\275BX\227\274U\277]<Y?\206;a\010\351:4\224\013\275)\202\027\274\325\340\357\274\251\r~<\255P\031=\220d\202;LP1<\320\375\243\275\372\r(=#\220P<\355.\376\2742H\231\275Y\205\014\275\323V>=6e\220;%\370{\271\003\235\334\2742\207\364;\264,\252\275\033\tH;5\364\000\275\242=\347\274\0160\373<\024\034w<\326\025\026\275&\367\224=\273\342\206\275\260\035\247\273\322\300\216=S8\342<6\017)=\254\333\311=\000\201v=\333\\\200\275\361\360\350<Oc\255\273\022\345\007\275\024=\035<L\346\225\275\215\215G=ou\344\274\305~c\274c\220\304\274<(\007=\356\026+\275\257\300|\274^\307p\274#i1=\370\216\366<?;d=z\"\332;v\037\216\273\363\010]\275T\313\216\2755\354\310:\343i\252\271\236\366\233\275\202K\357\274t\233A:\236\3314\275\t\300\346<\272\226\354\274\377d\367<\260\036\r\272\203\221\243;gr.<\036u\306=22\027\275\025G\230=dH\376\274\263S\207=h\027?=\263\365\031=>\252\272<\213\252A\2759\027\205=\223u\255\275\224M\002\275\357\'G\275^\377\270=\357\207\013=c\225\026\274\3504\363<\314\007\266<68\210=2\200\274=\330G\267\274C\303\030=;\263\007\275\036A\321<;\202N\274*\207J\273\310\026\310\274\226P\214=\2207\364<\3129x\2759\327\276;\010YX=Nq>=-V\177<\022\326\310\275\227 F<\242<Z=\215\235I\275j\014\320\274\277\021\250\275\266w>;?\335e=@\344\035=\300aS\274c\360\345\274\244\031\224\273\t\r:=\366\026\313<\221\252\267<neJ=\260\2533\275yw\017\275\353XQ=\264\316F\275\002\362]<\221i\252=\355\333s\274U\001\010;\365\203\004=\263\037\004\275\315f\217=\250\356P\274#\312\264<]\273X=\235-\237<\324\337\013\275\001\322!<\200\243\003\2741\312\226\274\331@\354<\023r\202;5L[=\307\314+=\2715\005=2Mr\274q3\253\274}\377&\275_\033\227\274R\016\204=\352l/=0\024V\274\2149:\275P\037\272<O\312\334\273\373\332~<\345\240b;K\216t\274(\001\005\275\243\361\303\273\254\362}\273T\034D\275\353?)\275\367\017\306=SD\350<\276\\\005\275\354\036\212\273\201\335\331\274\376\255\236\274\242%<\274\036\333\303<\372\205i\274\261c\300\273\276w\312\275pFp=E\021\300\275B!\237=JRk\274\371\242\347\274\001\273\207=\336\325\033>Y\344\276=\325\373\027\274\213\261Q\274\345\263\241\275\030\224\216<\264\\F;]\322\'\27505\300\275\3114\264\2740C:=s\305~=q{ <\350\273\237\274\343\364\206\274\030\263\265\273JP\203\275,\240Y<\204q\375\274n|!=M~,\275\206\265\344<\373H\021=\246F\267\274` \203<\274P\300\273\0257)\275kQ\224\274\360\257W:\246]:=\267\316\353<B\243;\275U\005\3529W\370\360\274\312\342\203=H\325\276\275j\000\242</\017D=\001\3022=vHG\274\310\266U\275\274\346R<=\000\310\274\305\000\273=ia\342\274\366\352J\273\240t\330\274\236\252\354;\257\317\302\274\306\326\375<;;\253=\213d\006\275\240^\202\274ZK<=e\374\356\274\371\332\226;<\331\374\274\014g\r\274\002\364\262<\027b+\273vm\224\275)}\216<\316\225\260<v\201<;\022s\245\274\346\266\200\274\332KI\273\203|\025\273f\272e\274\'\237\n=\242\367\256\274W\204\020<\364\230\207<\254\237\251;\036+\203\274iu\217\274\364\344\264\274\311\216\217<\304\235A=\010\311$\275l\2309<\222\031\206\275}\022i<\245\225\255\274\326l_\273G\034z=\214I\001=\225\220/=O\212\003=\014\320\303\273R\320\035=\355q\226\274\035s\335\274\036\353t\274\r\363a\275\357\233\314\274PM7=\274\251\036\275\300j\247<\177\254\244<\234\232\242<p\275\210\275\232\361J\275\232\371\316\274\354#c=`\235\254=C\224\216\275)E\n;\254xE=7\344\021\275\205\213\220=nA\306\275\347\2233\274\276\246\222\274\331>\020\275\267=k\275\332n\243\274\204\250\324\273u\351\'\275\032\323/\275\252\204\343\273\354Z)=4\006j=>\334\341\274\026f\343; \207\362\273\265;\314=q\243\034=HZ\275<\233p\376\273\2613\005=]%9\274\271\305\327\273.g\341=9\263\326;\260\350C\275\341k\004=\305w\217\274SW\254\274\373r\323\273t\251\217<\333\321~\274\3527\277\275\016de\275\234S\031\275u)\203=\217hl\275\237\242e\275&\256\024\273\267\315\362\274f\300%=;\365\266<r\210\370\275\366%C\274<\207\216\274!S\230\274\253)%\275\234d9;\371\362\014=\r\201a\275\200A\'\275\265\341\\<\241\311\335<RN\343<\016\216\211\275\334\370\235<Y\333*\275\371\264\032<\263a\215;\013,\346=\237\355\341\274%\021.<-\330\242=\266\034\005<;\021N<\306\354(\275\021\272\007\275\333A\200<\204\"\204=\374\220i\275\205*I=m\006B\275\223\224\363<h\277\023=B\262\001\275\256\247\035;\236\0030\275\346Ld\275\2470\242\275M\304\212;\250\346\007<\027\316\255=\010\337\213\275~\2469\275\001\356\311\274\305\203\264;wW\037=-hd\275\342*\246;\376$\246\274\271\376\033\275.\2540=\224\0109=O\226\n\274\341g\365;@\310\216\274\252\217\017\272$=\221<\306\320\022\275\317\376\014;)n\226<\253z\325\273\303\312\360\274\024\360!=\216\333\010=\367\036\201\275\353C\306;\240\033*\275\035\367\225\275\327!\351<d\205\342:\\4\024=J\220\325\275\316G\252\275j\303\221\274`m\\=-1\216<\323g\232\274%\275]=\233\2701=\2464E=;\030\220\275\321\332Z<\007\351\321<\315\023\024=\201\242Z;\255\002\226<\263\2151=\353\003\257<n\260\304<\363\016h\275zR\"=Yz\t;\352\316\332\275\373\361\322\273\037 E=\227\212\325;\207\214\217\274X,\226<\254\na\274\037\277\204\271\275#\002\275\315\345b\275g\235\263<\330\235\241\274/\350,\275\226o\350\275\202\342k\274l\211\007=\241\336o=$\333\227\275\177\230;\275?\270\355\275\332\203X\275\224x\357\273\312\213\305\2731\246\306<0\252^<\020_&\2757^=\275\243\r\305<\267W\243=\314\205j=\036y\242<\037\035\304\274\276\351\277\274\t\321\347=\215\227\371<\223\204\037<dB\302\273\\St\275E\243\261<\225c\246\273\327\274\022\275\376\217\267=\302\032\010\275L\335\005\275\371\003\027:p@\205\274\003\251\207\274\211\365\312\275\246\244X\274\247\335\310\274|\344+\274Q\0366\274,\346\345\274\244\326\013\275G\022A\274jD\315:\026\351\220;\275\257\240\274\345J]\2751\232\351\274\376\323@=6]\373\2747p\215=1\025\307<\325r\020\273\016`)\275l\031!=u\352\221\274\305\256)=\rHC=\035\323z=\025\232S<P\010m\273\323\273-\274\235\203\273=\277\252\361\274Ox\014=_\324\211<\207\267\357\275+nh=\307\261.\275w\200\300\274\311&\210\275\203\320h<\202\244\001\275Kx\231\273\323ne\275\030\031z\275X)\310=q\231\214=7 \221\274\275\027m\274\203R\006<7\351\021\2759\030e<\226\211\277\274n\225\336\274S\373#=6\036k\273\273\036?\275F\343\226\275\025$\377\273q\310\271=\236N\322\273C:w\273\342~\300\274\"\0019\275\211@\211;Tf\304\275\021\262\202<\315\n\331\273\204\213\202=*\205\262=\022\001\177\275%\276\220\275\256\237\211\275\375\206\005=6\257\026<.t\221<\237\371h\275Bzd<p\304\356<6\201D\275o8\304;\327\252\207\274\337q\212<;\021\223\275\030jn\275_\346\223\275\303\305\r8\036\303d\275X\025*\274\r\267\307\274\266D\203<\030\376\311\274H\230\371;\351LR<jO\277<3\372\277:\245W\244\275\021\355\226\273\233\"\006=\240\324\020\275\245L\371<\341H4;\243\337\007\276`U\326<\237\222P\275\213\343S=\316%g\275k\223*\275\001c\'\275\270\n\240<1\3201<)\332\205\274P\006\0019~`\001\275\361%\302:\200\375\271\275\277{\377\2748\225\207\274\017\262\240\275c\327\252<\251\007u=v\357n<\252\234\r\275\205\275\220\275k\321\210:\366A\002\274}\222\221\275n\023+\274Y[-\275\227\244\377\273Vjk=\310y\215\275r[I<\025|\255=\237S\311\272\256L\017\274\315\024\203\275\0379\320<\2628`=\271\227\351\273\026\213\262\274\345\031R=\004\321v<\344\342$\274\274\335\341\275,\nx=jHG=q;S\275\315\"D\275\212\325\031\275\001\310(=\035\276\'\275\2125\360\273\025\032\203=`\272\356\273\\v^<\r\205~=\303\'\241\275&E\306<\033\214\214=^\346M\275Q\211\224\266\034\216\224;\264\345\376;\240\251\227\274\371\233\203\274\260s\020\275\377\214\231<\361\360:=\003\371V\274\372\204\320\273\366\032P=\360_\260=a\265\027\2759O\225\275}\335\217<\"\342\240=\222\323\252<\000\307\374<8\3335\274}%\273\274\235b\375\272\247\311Q=\211C\230<?\306\031\273Z\246g\274\344\322,\275\350\370\333\275X\025\031=\376\217\000=\002=\246\274!\314\014={\007\354<\347\356\374\274)\315\001<2]\247\273\221\031\244\2758\027\254\275\253Y\271\274A\2778=\375\300\252<n\202\020=\376\333\221\275\332\277\000<\313v(<X\351_=\000\203\222=\334\207\363\274\231\364,\274\317\357Y\274\274\306\210=c\361\010=\005\227\225=\'Q\206=\\\022\'\274\320\373@\275\363T?\275L\266\357<t\256\277<\035\024\\=\273\023Y\275\227v\275\274\265n\202\275\376e\277<7\021\231\275\255\321\"=\333\340\254<C\234\377<\306\237\006=\037\306\337<b\006\003=\345\304\201\274)i\240\275s\310\333\274\276\302\244\275\210\256\352\274{\254\317\275*\266\000=\264!x\273D\025\222;%6\315\272\23415=,i\204\274+{\023\275\3159\273\274:\270\356<lK\237\274\366\000\273<\016\242\377=\223\364\252\275\357\031r\274}\003\303\274V\204\252<\376\262\245<\367\337\337\274F\325g;\202|\302=\211\364m\273~\324f=\374\022I<\273\305 \275v\325\202=\355__=\342\'3\273\n]\333;\026\241\300<\212\233\246<2{\014<\375C\271\275\261m\314;d\221\306=\213\320\253\274\266\377\215\275S\223\263<\226\263\017\275`1\266;\246X\020\274\357)L\275\017\217\215=\006d\026\275\200\314h\274\375S2\274$\202@=\243d\356\274\214\243\003\274\263\214k\274\217\245\227<f\246\010\274\032=\271\274\037\r\242<\337bL;\30164<s\036\305\274E\025\307\274\306Tm\273Z\201\225\274\255\034)=\357S\r\275R\266H\274\252\277\"=\322\211\026\274\341\320\211<\036\326\300\275k\354\032<9\212\025=\320j\266\272\343\315z\2751\022\322\2747\254\230<\246\360!\275]\312\365\274I}\254;\033\271;</l2\275\267\003\325\272l[\334\274\241D\035\275\245r\020\275\235\225\027\275\323\342\271<\200\212\263\275\357\326\231=\215\rl;\006\272\205\275ww\024\276\'\226\370<\256\216\351;\336j\231\275\250?\027<\261\273\014=X\372\220\275\022z7;e\205(=\235\272\240<\001\374\227\274\230\313\234\275/\003\021\276C\311\251\274)K\031=f \313=8\340\232<\213\220k\2753$\023=\254HY:\312}\037=?Xq\272\214\026z\275\273\264o=\177\344\224<\374\247\370<\024_\304\274\327N\037=\262\373F=\363\332\256\275\242\365\014=\031\357\350\275\234}== \021W=\316\307\007\275\261M\000= \352k\2758{n<\225\320u\275R\245\305<\'Y\301<2N\300\275\363+\024\275D\275v<\225\022\t<<\246\256\274\355\364k=\246\345r\275\245\321\004=[\205}\2756\335S=/\264\022=7\353,=]>\257\275\233/\033;\036\034\\<GO\241\274m\264!\275&\034Q\275\235\004\360\274\320\311~\273\347\253\371\274\311\261\230\275~\321R=\265W \275P\217\317<K>\272\274*\275\363\274\303\031\210;se9=k\332\212\275\026Q\222\275\002\034c;=\375%=c\243\372\2754\217\377\274\231\212\250<\003\257$=\273C\243:+\032\367\274\322\333\005\275\370zd<\3645\005=\037\254\320<\240\024\262<\352\364\274<\002d\211\274\014\340\023\275\'4\307\275\2534\221\275\005\316\022\2749\267\234=\255\214\223\275\320p\220<\236\236\264\275\275\351\037;>\235\207\275\005=\034=YQ\001\275>\341\004\275\022<\302;m\247\356\274}\320\016=\360\017-9\306\256\362\274R\204\016\275[\305!=-\032\035<\355N\257=\222\231u<\257\262\202=\222&H\275E\374N<n\025\240<\353\225\006\275\364\212\271\274\270d\250<\332\217\243\275\367$\227==q\017\275.=\366<j\221;=\212\233p=/\027f\2741\352\030\275P\2035<\026\246\273:\231\016\001\275\204\301\207=\r\344\204:e\312V=J\371\221\274\365g\003\275\306\n\t\274%.\260<\277^\264<1\247E\274U\240\020\275sB\202<\'\215\177\272\224\235\255\271\002F\353\273\370\321\362\274\262\346><a\266\273;\227\244\306\275\177\216\'=!y\251\274\315\001\241=d\246\033\274\344\025\322\275\200%\026\274\273\266\303\273\331\230\274\275\003T\272\275\242P\002=1\264\223=c\336\225\275\212\211\260\274G\314\007\275\031\217\225=;\366\037\275\330b\n\275\177\330\\\275l\317\260<A\003\220\274\267\376M\275x\300B\275z#\225;ghG=\006\372.\275\237\214\271;7\374\243\274\254\277\200:\265\350E\275\233\023\216\274\2266z<\022\350\224=\267\313X\275\215\r\243\274\207\341Y\275\367p1\275qs\350\274a\317\243=\370\355\003<$ \005=\336\342\231=\020\202M=\334\266\354;u\221|\273\335\335I=\335\324*\275\331\325H<?\317\252\275\334\2663\273yY\003=f\372\000\275\377\3653\275\277\017\355\272U\004\226\275\213\351Z\275\036O\237\274\243oK\275\351\371\002\275\312I\243<D\302\244= \363\331\274\243\246l\275N_\312\274~\321\205=\265\207\031=\377\247\'\275\231\356\000\276\370\340\024<<0\226<\320\276t<\217]$=\207&\331<\027%\r\275L\340\233=J\371U=?L\376<\0275\221=#\335\327=\340xA=\270\271,\275<W\211<GJW=\364\352u\275\021\345\217\272\332\277\243;\266DJ\272\177\257\337\275.\034\241\274\340\376\261\275\177\335T\275F\220\210\275\331vf<\262\301@\274\271\254%=\315\365d\274\257\376}=\2271\200<$\374\314<0\230\311=L\226\314\274$\237\212<\020\036V\273\236\311\356\274\316\314<<9\326\202;?\305\272=\371\310Q\275u~`\275*\375\006\274^\rT<>\226\220;\244T\276<\277\207\254\274\355^=<\260\306\357<DV\221<{.W\274\211,\244\274t\232j<\306\t\217\274\243\274\002\274\366N\244=\323\264\255<\362kZ=R\275H\275I6\035\275\357\216N\274\367\tM;\024\014\234;\262V\311\274\333\026E\275uN\030\275\351\361\021\275\352L\225\273\325\273T=\303\3761\275\320\2611\273\354\234P\275\0032\253\274q2\206=L$K<\235&%=\351\211\371\273\324HB=my\241<;\t<<\200\177\217=\313\241+=Su==\275\372\310<\241\250\206\275\201JA<PK\002<=z\037=\327C\006\275Y\205\006=\200t\351\274\342\277\207;\215O\307<\177\226\200\274\363\212\333\274\352$3\274\336*\010\275i\032K\275\3222\320\274~\275\326=\345\376\224<\315{-=1F\326:u\341\006=\337I.\274\324\215\237\274\264\215X\275\337\301\222\274\324\276\203=\347\r\034\275\305\326\357<\211\216\030=\026\031J=h\364N\274\376\277c\274Vm\250<J\312:=\014~E<\345\221\260\273\"\007\270<\257P/\274\023\333\277\274\022\211{<F\357v\274~\264\034=T*\2749\017Cq=\000]\331<\356\020\257\275&\200\025=\325\2233=\215XH\275E|\036\275,\177s\274\374}P=\035s|=\342\312\231<\'\247Q=\366Lk\274~)D\275=Z\377\272\252\222\226\274\250\237\036=\305\223 \275\314E\370\274\204\353\302<\261\251\324\274H\201\307:\261\360\264<^\203c\273\275\256\037=H\244\341\273\371\276\235\274\232t&<\211\357!\275\223@\202;\231\265\333<}\237\037;+\027D=\024\202\004\276\014\331\277=\337\372R<\\\222,\274\271\206\200\272\006\275R\275\325\333r\275\016\3038\274ZO <\245\212>:Z\260\366<\013\263\026<\244\203\026=>^!=\005\213\306<\\\2120<\371K\n\275\334\366\005\276\203\325?\273\222\350W\275@F\325=v\247\332;Pf)\275\245\352<=\272\246Z<\205\006\271<<\260\332\274\253\366N=\235\376\251\273\323\036\267\272w11<\216\307\352<\234hU;]n\344:~\227\034=&\020\276;\004\335\031\275&b\006=\232\351\301\274s\252\027=WA\'\275\036\314\206\275\321\002\033\275\"\"k\274\375?+<\323\272\265=UY\033\274 \261Y\275\2248\241=\003X\216\273\020\242\'\275\3663\037=\256\333\324\274\234\244\245<\003\265\372=\030\214\274=LQ/\274\210#\203\275_\230\255<E\"\023\274\315=P\275Q4\240<E\205\316<?\245\207=\210\254\035=4\252(\275>\344\303\272 \\`\275z\0260\275\017\230 \2755\242\221\2746\035M\274\242\335\362<l\377\335\275\377\326\341\271S\313\321\274\276M\027\275\036\030\301=\371\213\254\274F\302y\275\013+\214\273\010\324\356<yN\002\275\241\234\304\275A\272\224<\224}\032=\007(_=\314\200\231\273\253\035\264\274\033\266&\275l\355y\274\033\026\325:\216\214t=\3248d\275\367D\035<\231T\245<\307\363\022\275j\301\363\274v\302;\274\3618\3059\3205\004\275\n\213\005;Ocs\275\267\324\227<Z##\275N\335\020=\376\354K\274S\336\320\273i\376\322\274\302\030\200\275\370\033\303\274\245\354\260\275\272\003\323\274\314\252\233=\2632\321\274\'%`;\200\023\027=z\317\031\275lP\342;\273\023T=+MA\274tU:\274\014D*=\257U9=\335\275B\275MIT=\324\2503\2750\310\252\274\017\3639=\351>\024<\301\374J;\"\222s=28\341=\372j\004;!\177\267={\021E<\367\207,<\263\200\204<\245_\013=\3066\221\275\235\275a<\017\006\001<\3408Y\275\340\374F\275\320v\243<mtB<\365]\214\273\005\r[<\200\276\264<\267D\234=r\237\227\275q\344p\2735\251\262<J\207*\275\234\006\033\274\332\273\231\274rY\005\275\r\353\230\274h\001D\275\201\255\323\274f\216\n\275\033\330Z<&\274><\322\n#\275\3427D\274R\211\034=Z2\203=\334\333)=l\246\210\274\201]\005\275fa\265\274\036q7<\td\273<\341\360\305\275\265\026\362\273\241]e=\033O\223;QG;=y\327\270=\244\257?;PH\250\274\204\303\243\274 \366\354\272<8q=)\314\365\274z~\202\272\244\262\277<\315\2315=\037\0001\275`\374\202= \373\245=E\377P\275#J\360<O\214X=~\023\230;\252C\023=\266\"%\275\007\200\013\275\334\0000\275\232U(\274\217,\241=\271\010\004=\363\231\r\275r\024\200\274\254\022F=\r\342\220\275=Q4=\211\357\224\275YU\213\275\213\224~<\322\311W;=:\031\275\351;\304\274\177\227\205\275;\346\252\274A\260\312\274Eu\003\275\320Rh\274H\311:\275|\313E<\266a\301=\300A\303\274|\240\024\274\373\341v;\006]\310<\030\303f;\361\031@=\314\264\303\274\331\212\200\274\277\204K<\224\017o\275u\312u\274\202\267\256:\211\037u\273k\037@<\221\271\217<P\236A=[\nY=\035\246U\275\\\305\306\275tS\017=o\034\255\274MF_=\034Bq\275B\302\232;%\206\345<\250w\031\275\2173\271\274\305\315.=\205\322\005={`\021=\214{\232=\270\2419=\365\036\333<\221\237\367\274\350-`\273\260\2202=\344[\t=\250\201\350\273\360\n\353<X\243\331;w3\031\274=\264\214<\310\005\000\275g\213:\275\327\313V\274\275\032\031\275\321t\257\273\242\223+\2752\257\260<\237d\242<\277\005\207\275\227X\254<\254\205\270\274\356\236\352\274\252u\253=\307\003\260\274\020\361\336<\207\326m\2750\3445\274\363d]\275)\244k<\205em<\371\277\276<\314\341\352=\213\026\232=\232\272\023\275G;_\275D\355%<{\340\307\275\312\2738=u\266@=\215\201\240\275\365\246\327<w\006\030=\223\213\357<\310\205i=\377\273c\274K:\233\2754\032\230=\010\337-=\343V\212\275t\1776=\025V\257<\275s\225<\030\363\257;\250dO<r\335\037\275]\207q\271\246\342\201\273\301q\336\274\23372\271\023aJ\275\342\225\034\273\257b\353\273P\210\232=\336\006\t=\320\020_=\336\007\305<5\241E\275\260\352\232\275#\2406\275.\374\242\275O1N\275\267%(\272\221\271C\273B\271\373<\260\257\200=\237\366\r<\025`\024\275_#\215\275:\226O\274\373%[\274G\034\003=\251\374\n\275|\354\027\275P\000$\272U?\241<y\214\002\275\2174D=.\220Y<\375b8<\370Y\226\275\200\317\325<\305\316\205\273@\345\'=\244\222\024;h\235\244\273\304o\017\276\001_\316<\006\204\002=u\227\237<x\264~<\275\336\t=3s\356=c\"\203=\253\342-<\346\303\025<\310\r7<\334\010\210\275e*T=;\371\006\275\216\237\240\275jY\204\2746\206\263<\333\273\264\274zFi;\202\205==\245\3347\275\307\225\240\275\267Dy=\344X\302\274\306Q\032<~w\257\274\210\230\004=\300\250\226\275\340\247\341\274#\305\003=\"`\377\274\003\214\224\273\357H\246\273\244\2332\274@\023\203<BK>\273\3323\343\274\003\014\241:\322v\232<YZR\275\314A\021<\364\346\315\2752\022\221\275\201\2731= (R\275\346\274L=\247W%<r\2001\275\353\'0\274\314mL=@\367\003\275\253\235\023\275\330\346*<qC\277\274n\236\275;\315\\\204\274M\206\033\275\335\017\003\275\236[\006\275\341<\366\274J\022Y<\333\207\227:0%S\275rs\341<5\300-\274\326F\323;\300\324 \275I\017\222\275\202\250\200\275\005\220z<\352\2555\274MV\016=$7\214<\026K[=@+\007=\nV\371\2732u\366<Xk]\275V\334\231=\032[\340\274T\245%\275\272B\322\274\360\200\301\274\013\033|=\220\314\342:R?\261\274\350Kg\274W\301\013\275bcS\2753\267\375\274}\202(\275\242\003\270;\004\030\021=\035D\006\275hn\250\2751\332\022\275I\330~<\306\253\036<K\"\252<w7\337\274\2656\002=\275\236\201\275\355k\001=l\033\036\275y\272\375\272A\325\343<a\334\250\274P(j\274\226\037K=\260\255f=+\222\033\275*\2642\275\322\201\331\274\221\235\326\2740\271&=\255&\321=*\261\230\275\241\277\026\275|\027\211\274\354\262\315\275\027\371\315<U\004\014<\356-N=\353\000\247\274\010\215|<M\323:\275\025\014\343<\232\205 \275\rd\367\274\013Fy==j\256\275\262\265F\275\373\243\271\275\010bZ\275\222\274\000\275\217\224J\275\257V\273=\035[\322\275S\253&\273\305\215\203<\364?>\275\243\274\024=\316ej\267\311j\314=\007\036\215<\003\344\342\274Q\3064\274M*\026\275)xv\275)t\361\274\263\211\200=e\362\223=\2638\017<JJ\276<t\343\235\275Y\205\251<\273z9\275\241[\030\275\2250\n\276\233Y\316\274\334&I=_\334f\273\247\0375\275\306\020\250\275Hs\274=\331\304\036;{o\016=2\025\264<\240I\215<ZA/\275\337\201\206\274n\270w\275\263b\007>\035\212\013=\203\255E=\3244\024\274(\361\265\274\335k\237\2732\'\035=\307e\313\274\305Q*\275\260\271m=+L\217\274\307\303\354=Y\033\251:)\213U=R[\352<m\363\230\275\231\376\337;\311Y\227=\347Rp\274\235\2525<\2105+;D\002\211\275l\372\201=5P\254<\310a\003\276\2439\265;\230\035\177\274\332\025\205<\306t\027\272\340\'\207\274e\232\334\275g\250`\2751\'S=\r\310v<\331?\264\273!>\236<7w\006=}Q\025\275\304Q\217=-\320\235=UK\021<}\240?=\221\230\260;\023\373)\275v\203\220\275^\322\250<BCs\274\213\366\302=\323&\033=\333E8\275\220h\276;uEP\273&O\251\275\203\321\324\275h\205\023\276\235\344 =\220\022Q\273\001\035\321\274\251\215?=\317\244C<w\"%\275\343K$\274\217\023\321\273\373\251\200\275 KT=g\345d=\264\232\316=\177\253\222\274\206o\242<\353\341\203\274\343C\037\275B-@\274\216\342Q;\200\254\256\275jdH<\\\254\\\274\237N?\2751\361\022=L\273\207<\004\346\233<\017X\";*U\214\274\313,_\273\374\241M\275\272\232\273<\244(^\275%t\260<.\316H\2757\202\261<\261\025T\2752RJ\275[;L=\204D\225\275m\255\006\275\234\000\023=P\233N\275\223$\324=s\336\032;\255s\014=0\256\272<3\360\203<\020\310\204<\370\254\r\275\270\224W\274\'\302\201\275\202\2355<\343\3230<3\260\217\275\376\224\214\274B\302x<\217@\206<u\310V<N\003y;\361\317Y\2739\300\226\274\300\037%<\273\301\250:Y\305H=\007\214\006\275\037\323\204=L\324r\274\324\255\200\274!T\352<\025\306t<\264&\214=\242\374<=>m\243\2746\243\203<\346l&=\330\232\270\273\237\373X<^\355\026=AR\244\275\202r\025\275j&\257\274@<3\275s\006q\274ccr<$\223E;\032G:\275\3768\021=\360W\200\273\322\306J=4\326X\274e\2712=w\031\205<i\305?<\253|7\275\263>u=\223\330<\275\022\306\023\274g\336\255<\363\252J=4\342d=i\3322=\030\314\031=Y\205,\275\312\332\000=i\374+\275\206\311\375<\347se\275\222\266\331;D\355\005\275R\262#\275\203%\323<\245_\307\274\253S\245<i\367%\275\224y\242\275\221e\254\275\240\323/=$\357\002\273\010\317v\275\217iQ<\214\007Z\275.\353\200<L\274I=\031\034C\275\344\001$\275\215V\010=\212\302\027<\206\343\222\275\330\003+=\013\363\014<\243\026\306\274\360q\212\275\266\221\246\274~\375\215\274\t\336M=sW\247=\355P\341\273\264t\001=\243?S\275\207\323s=\370S <\221\")=\246X\236\275\336<\361\273\037AP<l>\315\275yV\367\273zA\227\275$Pw\275\350\'Y<v\026]\274\010]\002=;NX\275\3026\307<\332<Z\275\233\277\331\275\361\017I=\310&\245\274\334\317\252\272\"3\351;GCx\274\0019\211<\025\364p\275\353O*\273!~\206\274Q\233\024=\366\246\'\275\302\232\221\2753\324\263=\260\264\024=\223~;;\211\252\216\274\243\034N=\002\"\016\275\001b\367<.9y\274\013\253[\275W\260\010\273 \311\262\274\253\317\200\274\3274\217<\034$\204\273\020\0302<\336\316\"\275\005vG\274\371rI\274\313\353\352<\347\024\201\275*$\377<G\2038\275E\2422<H\224|=%)\331\273\335\220\374\274\2064\276<\227\024\275\274\343\270L\275m\364L=\347\004.\275\254\255\016=\200\370\277<p\367\n\275\351\210\013\275\302G\202<\372\026G\275\010Q\275=S\313/\275\335\334\014<\t\330\"=\232\301\007=|3\257\274\377r \274\004?\205\2750\321\036\274w\333\211\274\272T\305\274\337\021\3669\204r\000<\330{\315\272\326\351\312<\323c\n=\"b\340\274\237Ev\275+\006\027\274S\336\202\274\035\247\262;\216v\324<:k\322\274M\267\265\273\246\037D=\325\226\314\273\354\301\014=\251\226\265<\023\336\250\273\205\324\233\275dY\336\273{\325\303:{\320Y\274+\0277\273*7\206=\033\005\214<\313\350b\273\321\320c\274\023k\305<N\244[<\004}\224<\007\203i=\252\300W=\026\270a<+~\350\274\363,\205\274\367\021\225<d\205\006\274g\344\035\274\021.\372\274\223\016\001<O\244\021\275Y\361p\274M\315\272\274\005!G<\010\013\324<\220\225\221\275o\242l=Wx\327=\2608\300\275\246\021\376;|\364\023=\323_\244\274\201\261@=\313h\310\273w\370\256\274W\223v<\246\316\223\275B\353\217<\r\302m=\027\212\202<Ay\253\274E\346\345\274&\260F=\022m0;\342fl\275\006d\273=\">\246<\251\316r=.\273\246=6\273\246=\002lG=\342\245U=]\370\004<\022\311\253\274d\243\211<\r\226)<$&T=B.9=\2714\212\274\003~\242\274\363\267\260<\031\'\232=\225c\335<\014\232-\275\262\335\201=A\327\210\275d\036}<\027^\276\274}\002\316\274\312\364(<`t\325\274\323S\224<\377\376\345<%\352+=(\n\220;\200\241\222\273\2448\374<\350\236\003=\273\r&\275\340\251\216<E\023\357<\322\365\232=\016\000\230<\335\276\n\274g[\017\27522L\275\017\276E=q\350C<\214_\334<\310\237\034=\212\250i\275a\353C\274J\016+\275C\r\t=\351s\372<\275\373\306=\300\007\026\273\314\313\022\275z7{=]|M<\262\215m\275\267\3359\275\222@u<\202\371w=\rs\325\2745\225\017<\327\332\256\275\343\016\\\275\n\316\270;\224ui<\251\004\310\275\265A@\275\325\023\021\274\322\336\237\274\t\334K=`\202\246\275\206\245{<\2024k\275\220\304f=\224\365\"\275\201n\211=\353\207\373=\322*\004\275[\t\317\274\017\3479\275\333X\213=\233u \275\345\235\206\274!\003\217;S$\021\275\360\214\036=-AQ\274\034q\270\273\017zK\275\354 \323=^A\032\275YH\267<\240\256;\275\363\301\212\275P\340\210<\374G\242\275\370-\272<\317\326\276;o\271\277\274\002\026J\275c\227\203;?w`\275\330\306\320\274\223f\000=\n\004l=\351\014D=\225\033m\275$\000\220<s\007\273\273}h\201\275\315\t\016\275\270k\030=\370<\334\274Ug8=\343\016P=K_\267<\232\221\265\275\244\343\016=K \226\273\266\323\230\275\222rH=7\324I=\262\262\272\274\351\373\323\274JZj=3\331r=\272T\355:\r\233\367;\267f\275\275?\251\223=\231\257P=\255\005\345<+[\325<\2544\361\274\356\233==\235\263\364\274\300\346\347\274:,\324\273\001\210l=\034-\326<z+n<\305C{\272F>\211<\373.\000\275&\217\334;!\034\366<\037\327\272\275\262\245\024>\201\306G<\322\007\213\275\251\201A:\225nM\275\342#A=`Bj\2751w{\275\000^M\2758}5\274T\342[\275\222\216\215\275\306\037\211<j\231r=J\251D=\2633?=#2\243:\345\004\256\275\263\347\375;\3643#=\033)\004>\222#X\275 T\002<\021\207\240;q\250Q\274\345\3448<pO\r<=@\231\274\321\212\306\274\200\203E;\374\231^\274c\034\210=\030\303\340\274z\003*\275\224\357y<|V\206\275TB\266=\r\305G=\270V\004=\363\333\030\275k\\\002\275\327I\007=\244J\201=\304\335\206=\255\n\032=3\312\032<\347\265\344<\215\031\262\274vu\212=\300$\272;Mb\024\275\300\214+\275U\354\345\274x\026\305<J4?\275\317\356\200<f\311\021>n\013\203=\215\224N<\225\204\324<-\251\016=\212r[\274#\310\355<\342\345\020\275[\235\023\275\366\243\204=\2606\307\274D\336\236<-\005)\275\325o\262\275E!Y\275\213%\212\275\005\331(\274`\227\032\275\316IT<\362\326e<,\017*\271.\3219=\225#\306;}\000:<B\344 <\351d\233<\342\376\014\275\204\250z=u\261\217\275\226~M\275\364\342\324\274\224N\375<.O\200<\001\223\227\273\377\034\233:f9\220<\247_\030=y\251\031<\000T\255\2752%\207=\302^W<v\376\027\275+\257<=\262\004\010=5\360:<\022\227\255<\265\350\220\275Zy\n=\366g =u\014\227\273Y\354\206\273__\313\273*ZU=V\2648\274,\027F\273lS\005\275\214/\361\275y\t\360=/\353\212=XJ\271;\017\232\337\273X|\276\274Q\255\226\271\262\n\365\274\310\352\333<*>\246\274&\250\023\275I\356V<#4\373<\367\\$\274\035\033\273\272\025\220z<\rm#=\237L\226\275{\000f=\227\331\030<_z\305\272\374\014\210=\224\031\247<\342>\245=+\350 =\367\'\013\272\n\034\035\275\337\347R=\036\231e\275\003\307}\275Hkx\273\367\267\010\275\231\227X\273\177A\322<~\340x\2751]\0249\237\006\007\275\t\277\357<T\001\\\273\300w\244\274\212\305m\275:\224\207<\326(\204=\201\356\333<a\222Q\275\366]\367\274\325\216]=\2470\217<\023\021q\275\304b\331;\r\235\225\274\340\270\'<\310J[\275\376\026\332<\327gS\272\272y%\275\365\243\315<\220\263\220;\276\242\207=\306<\264\274\207\024$\275\013\233d:\271y\224=\031/\245<\244? \275sn\216<\305\2607\274\306?.=Q\263}=Q\310\234\274\255\2314<\334J\251<DNR\275\273\007K=\230\331L\275\302\366:\275\274\0217<\336Yn\275\307\311\006=\274\367i\275\365\247H\275}8U\275\273\363\232;\215\002\203<\344p\335\274\312\236\232\274o`\372<\303\332\032\275\333>i\275b1\262\274\003\317\033\274n|\216\274\251\210\214=s\'N\275\275\310\245=\327\311\017=Zdk=\035\351\272<\314\376\317=ZJG\274\276^\240<\010\031X\274?\230\016<f\242\233=\361-\210\274c\010\315\273[q\014=,s\275;0\311\205\274\306l\221;\365\021\251<t\312L;|\222\356<#\325Z=\277}\006=Kk\220<\306j\223\274\343\343\232\274\216\177Q=\254\361\n=\000jZ\275]\267(<\213\242]\274\332\203\240\274\037\005\002<\n\2559=8\362\322<,\\h\275\333fX<\220\035\325\274\265\367\034=\352\217\216<m+\302\274j\034\306;\356\344\344;NL\027\275\373\020\356:\rM9\274\271\310a=\277\305\024\275k\337\370\274\010\276/=\251\247\260\274\261h-=$?\'=!\225R\275\276W\246=p\033\372<t\240\027\275Z%0<\260\247\226\275R\357\203=\017\301\023=\000\314}\275\007\231\003\275p\004\223<?l\023\275\215\237A=\246I1;\262\242T=\265\2413\273c\t\311\275\213D\224\273Q\245\025=~\021\001=\272L\255\274F\337\370<n\201\305\273\344\347g\274\302\014\035={sH\273\201\002\205=C\221\251\273\272\036\230<\332\017\361\274\020F\221=J\326\n=\347\225y=\010s\213\274\013s=;\355\rv=n\'a\275\021\247\326<}wv\275\237\354\341\2743hv\273\306\031\215\274\260\345\236\275i\331S\275\233\322\236\275E\253^\274\016\022\343\274\322\215\375<\033\335\211\2747\002\360<p`Y=2\025`\274\001?\222<\322z@=I\247\356<\004\314p\275\367\345\341\273\353\325\233\272i\371r\275\313\016\343\272A4W<U\036\021<o`b<0\270\200<(\235\002=\244i\376\274\031\340J\274\373\332\271<\257\202\342<\272WN\275-\317\357<\017K\356;l\356\235<\2127\026\274q\300\270\275\220I%<\262\377i=d1\021\274\312\\\027\275l\222\025\275Q\213b=\202o\203\274\226\231\006\274\263\010\031\275\304/\241\274\273\371\320<2\335\320\274\316&B\274\305\232\r=z\306.=\331\206\001=\005\237S<\350\326)\274~M9\274\361/\032=\357u\216\275\304!\330\275\027]\031=\0147\210=\330C\375;\336\376T\275\020]\233<\204\030\n\275]\236-\276\005\037#=c\026\353\274\200\014E;I\223D\275\344\214\373\273\031\366\345\273\356!V\275\204\247\355\275\305w\203<~\334H<\277\212\342=\372\267\002\275\244e\026=\210C\022\275\352\037\002<\375\300 \275)\372)\275\253\217=\275\364j-\273\371\2022\272\332\246\021\274\r\025|=\313b\304=\345g\365<\346G\323</\022\323<\365\n\351<\227\206\237=\322ar=\030+\032\274`/\'<d\263\332;\302\020\204<\002:\220\274Z\322\253\275\317\242}\275\013\3256=\312\345y;\224S\247\274\tX\013=t=<=2\354\037=\004\217\305\274\n\016y<\256z\217\275\222\032\236<\023\360\222=\2347%\275^\\\"=\346N\241<\325\321\206\275\321\010O<\344\340H;\351R\373\273q(\023\275\026\222y\275Qf\007\274\206\266\204<\304\335H={\351\217\275\242.\311\273\305\330\242=Kc(;\301\352`=\314\177t\275\315\342\222=n\013@\275\207\316~\275}\336>=\021\025+\275\365\235\347=8\020\226=\354\"\243\2720\217\351:\275\311\350\274A\257\253\274\177\033\004<\372\314B=v\030\035=M\250\002=\027\035\213\273\023\316#\274\364\027F;\242:\241=\021\222\275=\224)\032\275\266\270\217<\022[\026\274\321{H=\177\305\017= r\251<\0239\033=\255W\007:\326\213\020\275\362\374-\275\306\322\331=\204\273\334\274\2466\300\274\203\326@\275\322\267\010=\313\203\023\275\027\300K\274{\230\010\275f\032I\275\360R\244<\324z\017<\237Q\036\275z\224\232<P\277\211\275\244\200Z=\242E\233=\204`\216\275\014\013X\275\323\376\036<\377\t^<O\247\214\275\270\214 \274&j\005=l\216\274\275\324:\327<\270\232\325\275\302V\224=\240\360\017\275\277\217$\275)\"\225\275\363Xn=\353_\336<\006\212\276\274\360\201]<\266\0061\275!\335\001\275s\307>\273\336\262\333=\244\252!;\267\303\033\275x\010o\274\003B\007\275\000\350\320<\326\010\206\275\335d]<ml\177=\357_u\274\251V\t<4|G\275\212\326\314=\247\2456=\243s\266\275\032+$\275\202\200\332\275UY\301\273v\322;<!\214\266\275J$\334\274\242\262\014\275\206\320|=Q\266\204\274+\355`\275g\266\206\273\037\\\220\273\322:\'\275\344\272Z\275^\021\304\275Q\376\243=\377\003k\275\005\245-\275\3358N\275;\263\256\274+\241\352;\210\246\332;E\376\241<ni\313\274f\r3\275&\241\237\275s9^=k\347e\275W\300\255\274\237\237\273<\037v\336\274<`\220\273\210?b\275\007\253\013>\\1\025\275X\357\207\275C\213\"<\311\027\372\274\272\354j=@\270\210\274\332|\177=\225\266\320\274\354\260\203\275\337\264\253<n}h<\001\234\035=\177T\230=\344{I\275@\234O\275\300\332\310\273\035\221\300\272\303BT;\335\366\270\2744\230a\274\306\304*=il,=K\363*=\376\316\267\274S\315\300<l\3631\274P\\d=\356\252\306\274\267\'\200\2752\272\201\275\306\255\337;D&\010>F\030\302=H\272\006\273 \321k\273\307,I=C\271\317\275V/\262\272\261P\327\274\342S\272\274\361\032\014=\034\264\001<\350or=\344T\312\275\004\021a\274S\310\334\273\262\263\220\275\272P\261<\375C\375;\177?\262<~<\324\274`nY=Q\305`=\243:\352\272\230v\322\274\353:Q\275QH\254\274BF_\275\213FU=)D,\275j\204*<\263w\260\275\245]\243\273\313\247==\205`\244=\330H\210<N,\235<\354g\237<\314\200\006\275A\021\273\275\004\376D\275\3533R<\233\014\212;6\n\216=\003\332\010=i\007\265<g\255\264<\331\315\000=\247V\033=\"\006\r<3\215\"=\035\273\200=\222:\206==\\\255\275R\330N=Ym\324<3\213~=\307\210\376:\253e?\275\322\034\277\273m:\"\275\360`\220\274=))\2756\210L=\001\2530\274\362\004\222\274h\031p\274U\3527=o[\315\274\363\337\231\275\272(\253=\333\367\377\274:U\233<JD\022;#;C=\311H\n=\274!\363<\237\301\303;\222\207\017\274\350\321\223\275\036\3675=\3153u:\371\206\333\275n\0136\274\331{a=\223\344#\275\312\261\345\274\325\020\342=^\'\356\274\013\302\212=L;\024\276\303\371Q\275\270y\366\274h\356^<\270\017w<\t\371S\275\337:\010=t\373\207;6\303\t\275 \270\344;b\237\210=\004\243\234\275G\345\212\275 \013\030\275w\230h\274G\236\235\273*\027/\275\177{\"<(=c\275+\306\225<m{6=\260\231]=\267\017\003=\354\010\3328v\251\205;\205c\013<\030@b\274\350\004\336<\221\205\232\273\334x\002= \225\312\274\266\037\353\274\205\332\200\275p\232a<p\321\243\274O\307\355<\201\014\260\274P\025\227=\230\233\033=\216\342a\274^\204j=\207\260\233<u2\000;\223>\251<!\035v\274\340\202\355=\267\367\227<7\356r\271\004\244(\275\330\032O\275\324\3767\274^\311n\274\344tU=x#\235=\006\371\201=\213|\t\275(\251B=\360\2142=\255\363\221\275X:\262=:\217_=\264\333=\275\226\244c\273*\031\261\273]\327\232=\rW\261\274\254\337\227\275G\023\032=\031\031}\274\021\333d\274\007x\024=\377\033==/\216\000=`\374\207\274I)\352\274ek\204<\033\206\301\274\370F\303\274||*\275j\301\343\273fU6=O\366.=\266\2266=JWs=\356Tb=a_\254<(\3015=n\rN\273\230\014=<\351\232\204:\325\014\014\275\3409n\275\277e\014\275\211\235\377\273\367\367#=\017\034\232\275\274#\325\273\207\333*\274\000>\355\274\326\021q=BU\353\274hB\234\275\351\273f;.\204\360\274\007\210L\273>\240\306:\2707#\275\nW\320\274\306j\254\274\232\362\220\274i:\347<J\365\304<W*\214=q\036\272\275\264\221+\275\"R}\275\224S}=\324\326\034\275\366\366\017<\244\354\027\274\034\266\033\275D\373S=a\026\020\275\2775N=\314~\310=\223;3=\315;\215<\010\216\310\274-/J\275\006\274\201\275\230\\\246\273~-\305\274f\223\023\274\344\313\005=\304\200\263\272\346cw<.\251\305\275\n\324\215=\356\"H\272\266E@=.\277\021\274u\020Y\275\357\357\022\275|=\265\274\365\362\252\275\003\215\321\274\035\3341=f\214y\273\312\020\373\274\376\306\352\274t(8<\233Jd<\211\245\360\273\344\276\246=\301\316i\275Z\013V=1\342\346;[f\036\275\007S.\275L(x=\0260\200\274\311yx\275\266\023\212\274\243\254\305\275&\310\373<{/\305\274\316g\037\275\360{\204\273\217\342%\275\332\247\261<x\001\365\274\215\257*\274i\306\220\274\214t\227\274\242\230&=\374\343\266=b\253\036=-\030\376\273\233\357:=6\251\003=\217}\005=`CJ=1qd={\016\254<\271BH;U9\214\275\363\345E=\032E\r\275\014\277\216\275\303Ui<\260\327{=\200gI=\347\347\014=\372-\007\275\003Y\231\274\2760\214<\022\244\324=`\242k\274[\003:\275\303y`\275\351g\273<\374\335i=\356\\\202=r\017\007=]\360\310\272=\364\"=\024}\247:\312\317\235\275\271r\207\275v\344\316\275\2433\367<X\027\245\2748\333\312\274\310\'\245;3\334\177;\264\020X=\337-\261\275\322\330\375<\026\014\267<\306uV<\251>}\274\034\3364=i\233Q\272\365\213R=e\206\353<\223t\265=[\305c=\236\341\226;\212\206|\2756.\224\275\240\031\213\275\361\211\251\274\274\000j\275\2640\240<\231\331\347<,\337\222\275\356a\251\275[^\033=\216\300E\274\246k\222<\3027\234\274\225)\220\275]C\271<\201\2005\275>8\271\274\270zK\274\253v\277<\330\277\310=\314_\223\275\030v\344<\035\346\347\274T\321\216\275\351\3201\275m\251\372<\357\373@\274n\031\264<\263A\310\275\313\367\t<\014\025@\273ME\336:\331\357\315\273\321Ij\274%\225%=!\246F=o\325\357=[fb\275\301N\371<5Q\345\272\264\326\370\273\301\034B=w`h=\006\365\322\274\003\025\324;\360\327}\275\275\377\032\274\363\355\234\275\004\2162\274\003\200\023\275\375\231\"=\021x\312<\203\361\001=\275\357\243;\261^\276\272i\372\027=-\271#:m\307Z\275H\025\013\274\022\310\277\274\250\036B<@B\001\275\206e\001\275\025\232v=\213\263\002=3J\212\275\214\345\263<Pz\315<2\220|\273\357\301\234<\277W%=\004\256\202<h\235)\275PJ\364\274\203h\252\274\277\224V=\230\372\204\274n\212\306\273\205<\232<\216\353\017=\243\366\257\275zOK=\232\031\225:\030\307\331;\010\376\r\274!\320%\275\2543\241\273s/\211=\267\363]\274\002p\n=g{\003\274g\230(\275\373\246\303:1\267Q=\r\010\361\274\242\265\032=\314\"&=\225\274\016\275w\345h\275C[\006=7z\230=\347\363\032<9b\016\2754\331z=\267\305\346<\3370K\275Py=<\031\000\n<\344\270P\275\245\330Z\274p\2272\275>\353\227=\010Nd\275\302\241)\274\240\330m=JG\321<?\246\325\275^\265\001\275\017\317\377=2,\013\275\220\205\000=\016\254Z=:\\\224\274e\031\244\274F\031\322<\327\316\020\275y=\363;\001c\214\273\306\014\035<-\363\031=\213F}\274\371z\303<\212c\201=c\256g\274\304\247\220<=72=(\365\376<\013\024X=\304l\315<\303\266\214<(s\n\275\214\364\007<l\324\233<U\260[<\371\302V<!6\000<\345\226F=]k3\275\034\001\013\275fzi\275\324\276\022\275\275\017\374<uo\204=\214\006\310\274\307v\024\273\331\372\021<6@\006=\310sn;0\377\022=x\236\276=\244\345=\274B?\336\274-\273\256\272\214rI=w/\246\274\375R\017<\372F\261<\244\216d\273\352XF\275[a\213=\032\310\221\275\235Tm=4\315\002\275w\001\362<\336\027\001\273\373\301\346<[ \033\274\304\203#<\023\345\177=\016\241\224\274\016_\243<7\033\225\274\275\312\320<k\220\344=\313\251\033<R]m;\034W\212\275\037`\023\274\014m:=\335\275:\275\241\220+<\200]\033=\364\236\236<70\347\273\205\232T\273\221\271\037=\'\034\227\272\t\372B<@i\232\274\346\326a=7w\200=\017%\276\275\244]\023<\225\327\256<n_\210=m:\004=\034-\2348x\r\231\2758\332\374;W\0336=\340#\367;u\261\253\274\023\314\r\275\031<\005=(\200\203;L\375\347:\345k\220\275IuL=\016\367\216\275\271\257\030\275\350\340z=7\260;\275\235;\203=\007\345\252\275\252y<\275t\211o<\230`X\273\231s\003\274/d(=\300U\206<\240\025\342\275\025\334L;\214w\314=\025\317\017=\372\214\005<\355dS\275/0O\273\3700\260\274#\300\'=\224\356\033\275\364A\272\272z\307\252<\231\024\010\275,\243\367\275\341i\025\274e<\274\274\3626\t=\275\332\243=f\241\261\274\3377f;\372 \273=\255\377k=z\'F\275 *\347\274\022\257\370<\224&\343\274\005\273\223<m#\225=\t\253\357<{\201\264\274\004\312:<:\301\201\275\335\213\266\274Z\241c\274\317W\032=\313\262\370\273\216%\022=\277.o\274\325\346\343\274\245\214\223<i\245\244\273\366\251-=\213\304\316=T(5<fz+\273\337\213\357\274\277R\n\274\371\2358\273\206}\273\274\\\274\031;\250G\320=\367\003\024=*bT\274\245(B=%\260\343;ct&=\371\006\353\274X\0259;;\304\224\274\337\255*<\335l\013\274\374\333\226\273=\360\275<y\2357=<Qr=/\361\212;+%Z\274z\232Q\275\313P\330<\216\\\265<f\250\001<=\375\211<c\314S=\'\005\303\27402o<\333\255\237\274\205\301\225\275\271\027\374\272\200l\036=\332\232\324\274\361\006D=\252\260\354<=g.=%\306\340=&\237\206\2756\245\236=\257[a<\005i.=Y4\027=A(\334\274Q=\254<\276?l;\311\352N\274sw6\275\233\314u<K\300\025\275\321\345\236<\305\224\177:\263\366T<f\325\235;\255\247\204=\231\005T\275.\315\267\275T\0213=,H\201\275\345\177\213;\266\273y<\005v6=E\n\323<1\327><\251~\254\274\n\211\214=\234\000/\274\270=\031=*v\212<y\334\025=\002|e\274\312q\345\272\220\267m<\027(\005\275m\026\256\274ib\021\275\2434\355\275\274@F=\006\330\02798~\303\274\302\024\220\275\'e\230\274\203\344\326\274\036\357<\275i\201\356=\252\025\021=\2406\273<\301\301\332\274l\354\257\275\227-\276\275\371e\364\274}\021\374<\231\245\027=iK\025\275d\210\\=\211A\206=\374\032}:\271U1\275\277\257\323\274\273\356J<\025\233_\275n\232+\275\034d\236;/x\025\275?\373\010\275\211\267\372<\341\313\216\274\217B\233\274\n\317\267\273:\332\002\275\207]4=\252{\021>\255\343\220=\213\220d<2?;<v}\301=\r\324\343\274\372!\245:\026\003\277\273\025\212\245\274\'u\274\274W\204_=\202\036\001<\276\014\206=\226/\207\275#\341\351\274y\344\235\274(\3111\274\303\252\244\274\235\367\245\275\360j\230<\2343\003\275\202\245g=\223\205V\274\277\243\214\266\306\"\341\274\013uL\273\323\352\223\2736&\244=\325&3\274\361\243q\275\t\350\357\274\205\251X\275\311\3144=\340X\304=\2770\201=\265R\323<x|\014\275\362\206I=\255\346\246\274\265\277\272=\366\317>\275\267\236\027;\236\371\020\275\270\");\223\307\243\275A\237M\275\204-7\275\353\n\005\2768b\315<I\022)<F\002*=\300\"\027\275\263i\203\275\365\236\253\273\313\035\226\275\357\320\004=\326\032\207\275\\\254\030\274i\313g\275\246\357=\275u\325\312<3\005\356\274\241\010\\=\3101\201\2748d\227=B\244%\274\302\264\220<\021\341\353<\274\213j\275\341\235A;*\354\037=x\336\222\275\303q/;\261\210=\274\257\231i\273\220_|\275\365\315\237\2749\373&\275\223\263\304=\266\332\205\275w\200\211\275HI\005\275Y\014\300\274\370N\211=\270S\224=\237;*<\322,r=V\254\237<\035\255}\275\026\365\213;\354\002\t=^k\274;c\332Z\2759\262g<]\270\241\275\216\030\225<\200\235c=\236z\340\274<\320\205\274~\234\225\274\214\207\206<\302\321\005\275\260\304h<\315\230D\275\013\014\013=\246[\332<\326-\'\275\264\323b<_\326\362<[.\177;\213\216\246<\266\371\216=;\257\212<\022\306\325<\351!\010\274\003\217\001\275`\313\304\274\024\355\277\274\243\n\214\275\312\351\014\275F\274\257\274H\307\030\275\244M0<y\377\004=,\222\216\275D\335\244;\033\252K<\376;\016=\247\375O\274\321\3241<k\306U\275\255\t\375\274\354\232\306;!\3508\274\314\276\307<16\034\275\347M\252\275\337P@<D\222\255=\340E\004=\375\002\315\275\266\347O\274\016\214o\274_9\025=\241o\334\273\251\213L\275\310\014G\273\037\'d\275U\206\230\275`j.=\321%\375\274\033\330|<\007a7;|\210e\275\274\346\310;\366\222\027<\0369\021\273\2243\316\274\360U\313\275#\340\\<\202\366\002\275\321\344\326;\037\273\242=\237)0=y+B\274\337\311U<\336>\026=\t/k=X\274\213\275\223T\216\275Zi\305\274L1\243\275\307\210$\273\311\354X\275 \013\340\274\014\232\274=d\240\021\275\020\346<\275\232,\204=Y\273\323=6\317\333\275\267\3623\275@\313\\\274\302\377\032:f\272.=\275\261\255<&\001%=jo\036=\354{\362\273\374\336\345\274\371KN<\247^\262=e\354l=\250z\007=\331W\256:P\211D=1b\207;EiG<k\222\336=\263\271?\275~5\300\274\333\016\215\275e\315C\275mZ\016\275\337\344Z=|2w=\302\245p={\317\366\272=\256\033=\024\306\217\2736\376\361<\301O\023=\302\346\272<ba\304<\334,q<I\022G\275\200w\213\275\313Z4\275\212\234\367\274\020{\034\275N\035\001\275\346\247<=\210\300\201\273\232\035!=\250\247\322=\345\244\307\274Io\315<\032}\203\274\361\314\271\275yoD\2743\\B<\307\331I;\266Nu=\225$\335\274\224\027\366\273/\255\343\273:\026\024=\345\305\250\274\364A\212=c\344\000\275 a\017\273Y\032\236\274\036\\\243=\227\235\203=\302\335,=5\204\342<T\267\351;u\263p\275hYO:[\353\332\274\\C3<\335\353\322\2745\006D;\266B\260=\276\021\342<<\375\007\272dl\247\274\341\236)\274\247\205\317\273\303\207\027\274\203\025\263\273\213v\027=A\373\205=v\010S\275R\224)=\353\235\315\274\266b\313\274\021\263\241\274\3522\271<>\370\037=H\362\274=\221\003?\275\03466\275\330P\241\274\332\346\252\275\252\307\204\274>j\n\274\304\246\231\274\245\344X\275\364\263\241</e\210<\327\236\222<\311\013]=\014\367b\2751z[\275\263T\027\2751\356\315<Q\336\237\272\312\016B=%\270\"\273\260\\Y\275\000\223\215\274\271\025i\275\264\332\251=lN\001<\027\357}\272\003\346\276<\330\231\317\274\361\010\241\275\251\246w\275\363\331U=\217R\214\275\202\010\201\274\"K\204\274\316Kh\274uV\023=\271\372\261<7\276\267<g\014\177\273\202\017,=}\237\276\274\325\225P=J\331\221:#\271\031=\374\244\261;|D\275<\302\320\224<,\307\226<\236\261\277<\336\245\270\274\226.5\274U\231\035\275\305\272\243\275\022\242V=\327\275\004\275\317s/\275\232\221\217=\2056\300<E\000`=\226\230\253<\224\005\227\274\364\2327=\014y\246:\021\360\000\274}\235\017<\010\275\372\274A\330p=^\360\305\274\246\333h\273\311M\016=\361\247|97l~\265\333\330\333;\2469N=\331N\247\274i\307\237<\247i\335\273\217\317\n>\251$\032\275&\337\331;\347\226\237=&{\270\274-\013\271\274y\301\311\274L\334*=?\334~\275z\322\204=\201FG=\021S\234\273o\2732=/(\314<\365\221\221\274{\212\220:\036\332\362\273\312\'j;\032*<<\262\211@=eC\036\275\3753\265<\224\200\207<\255\031&;cw\033=\257\003C<\032\370\225\272\346\275\241;.\231\275\2745\035\355:\307\227\234\274\225 g\275G\222\353\272\374\0362<\203\240\223\272\022\035\323\274\006\222\226<0\312\220\274\343\'m\275\361\355a\275\201\034\246<7\335\355\272\366\336c=S1\271\2750\250\275\275\211\205\367\273\3420\014\275<\2477\273\332\341K\275[\250\307=D\223\333;\366\224\350\274\2508\332=\347\017\017=\'\373\310\273\236}\304\272k\316\013\275\"\206\002>\325\375\367\273(h\245\275\n~\323<hh\340\275\220\340\354<\271\267\374<\000\n\020=\036\312\351\274\"Z\273\275\211\037,\274\201\302\237=.\347u=\013\230\356=\215\370\246\275\266\\#\275\314\342.=\310P\370\274\312\005i=&\373\210\271\331{\034\275j/b\275\346K>\275W\243x=Z$\007=3\274\316<@\020\201\275\231\251\000\275\342\3623\275\331\007\226\274\031k\245<\013LZ=\337\246\001=\025\314Y\275\372\377J=2\246+=\277\005%\275\301\317u=\t\267\226<\215\257\210<\210ev=\310\214\251<\241\\\264;\204\026\270=\212]\201\275\327E\020\275/C*<U\3667\275\233\234\236\275\005SB\275r\212\217\274\250\233(\274I\217\027=U\322\325\274,\234\211\274\312\001$\274\032{\277\274EsL\275\373\354\013<\2378\026\273\355a\000=j*\350\274R\364\221\273[\314\000=M\305\344<O\014\212;/j\312\274\350\364\243\274\307\356\343\273s\177\234<\005\010\256:\272U\020\274\0237\334\2746\030\322\275\276\372\\\275\262\266\243\274\302\375\244<\354\315q=\3018\326\275\\\232\217\274\354\237\225;\361;\304<\201\334\334\274\373\303\334<2;\001\275#/U\274\312\010\t=-\3162\2756\016_=H\256a\274\372DT\275\252\214\217;`\201\314\275\366\340\002=\2727\027=G\322\n;\003\253\256\275\206}\327\273g\260r\273\313\323\205<\300B\231\275l\274\342\274\236N\241=\242\210f\274\371{\260<\360\224z=h;\234<E\237\275=\231\317\246\275\245\003\247\275\246I\367\272yWb=$\303\337<\227\224\202\275\250p\276\275\237\033\206\272\210\243\351\274\010\362\000;B\343r\274\"\031\253\274\360a\333<|\242\211:_\022t=\303H2=\233s\026\275\362W\245\275\316]5<\331w\230;}\254.\275!\025[=k\266\213\274\031\356C:\005\226\020\275\027\252\337<\3644\270\275\303\2743=\216\304\244\2754\026\320;\356\266\027=\333\246u\274^\334\257<\037\\\027\275}p\232=\024\236t\274\017.\340\2740WE=\n]\217\275S\201=\275h\341\210<Q\337\n;\221I`=.T\224\274<\343W=\363\226\300\274\307\316p=\344 5=\224\265<\275\344\t\245;\2631\000>\307D2=\027B\304\274\374\215\262<tAt\274\017\302k<\204\212\255=\204\004?\274X\014\272=\2726\252;\323\224x<\325yg=|\260\026\275}\301\232\275\325\004K\274\336\363l\275{(;<l\024\223\275\016W\343<\330\206t\275-\361\215</\247\326<\213\241\017\276\312\343\\\274\322}\226=\306f\016\274\3023\233<\300r\236\274s\371\032=\256\341\005\276\034\376\023=\003$d\272\264\215\'\274P\222}\270\014M\352\274\325\264\226\274$\243!\275.\266\374\272\212\215\212=*\023\253;\367\027\346\274\025\215r\275e\000\370=\206\256\311<Ei\013<\t0D<E\343\262\273\204\324\036=\201Y!\274\232\375\324;\1774m\274\023\267N\274\252\323\200\275\366d\023\274i\332\236\275|\360w;&\307\377\273;+\305\275\375\335\005<{\374\010\275\266\002\225<\3610;\273\362K\234=\271N\337<W\230\235<\337Q\201\272-a\242;\230A\177;Y\371\325\274\262\200\270=\010\270\022=\023\363\307\274\350\234k=\341`\276\275\370\331n=\036&J<`D\257<\316\273\032=\327\010\276<\031\261\014=@\315\027=\374\277|\275\301<\206\275\326\237\032\274o\310\242<\230&=:\2478\'\274\370\025*;Dk\212\273\317\252\211=\n\221\201\275\030{\307\2741~\200\275\316\277W<\275\256v\275)5\n\276d\300V\275\224\nW<\365\351\216=\032#\203<\246\006P=7\377\032\274\nsY\274\232\256\020<\340\324F\275\201\"\271<\351\030\376\274Y\277\374\274\337K\347<\337\356\360:\365\370M\275\270\032\025\275r\024\377<A\010G\275\310\326\224\274Il\251<\252\333\255\273\252-\244\275\364C\324\2742\364\271<\372\216\037\275\353T?=\216D\272;\037\243\"=\200\004\315\272\217\234\361\274\363\231\002\275\340\330=\275)\316\205\275\342cV=n+\273\275\325<\201\273\275\240\242\2754\261-\275\222\tz;\027\025+\275\350\243\217\274\235\317\361<#\357\022\275c\230\245\274cT\256\275V\323t<p\253N\273\324\216E<\033\274\242\274\327\324\205\274y5Q\275\270\221i=\301)\341\274u5\007\274\256\317?\275\220a\352:\313\3770:/\367\266<\006\367\314=\220?G\273&\272\343;\242\356V\275F\002n\274\264\370\201<(\031\226=\270\337l\275\n\362J\2730\270-=\303Ic=+\t\010<HM\036<O\004\302<\002\240\025\274|n\271<\367\346\301;;\210\224<\200\371\216\275\366\000\364;\203\235\370\274\023\227\205<\260\217\020\274\373\325\032<\026\335E\274\241\240^\274h\217\212<\277\261\036=i\317O\273h\346\342;\3306\215\275\322\033f=\335e,\274\236\306\033<V\032\356<MO&\274\257c\215\274 Wu\274\021\235\253\273\371\032\334<\213\235\255\2754\311Q\275\202\252\\\275\233\374\371\274\010\235\254;f\252\213=\312\240\334<\327O\004=\214\250+=\361]8<\270cb\274F\203\001<I\362-=\236Ei<\023\240\272\272pK\177=\225s\321\274,;F=\0039\246;\002I2\275\364\343\273;\000\241\022\274\332\026\237\272\223\272m=\337!\223\273\377\014\310\27543\202\274\020\n\237\274\010LX\274\205\034\266=\277\250\232\274kD\021\274\345kJ\275!\014\272\275\317\262\236\275-\373\342\272\243\002N\274\3529\210=\001Rz\273\354*~\275\324\014?\275w\022\221=$\272\003\274\0242<=\332\035B\274\025^\265;\310U\021\274\254\212\263=m\304H<{V\261\273=y\033=\207\271\214\275:M\231;\362\000=<,h\013\275\257\350\025=\310\341\270\274V\362S\275\031\002\252\273E\325x\275\316h\t<\n\376\206<6\364\303<\010O\327<\'~\016=F9_=\214\0078=\204\302&\275!\300,=\216B\256\274\377\t\231<(y@<\'\320.\275\003\360\023=\347\004\031\275\264[Z=\201\335c\274\325\037\316\275\246\206\235\275\361W\247<\256X\227<\327\276\210\275\016\253\014\275R\303\201<\016RV=6!\226<\004c\201\275\312\213T=\336\334\305;]\330\200<7\330\305=\217\213\364<\343E\243=\327\372\016=\344,5\275\010\tr=;R\272\274\314\200n\275\230\362\202\274z\251\217\275\312\370\035\275I\363\332<j&\235<\316?\271<\037Q\247\275\362\311\262<\370\225)\275\021E\206\275\342|\265<n3\220=L=@=8\271\376\275\204{\323\273\177DR:\255TZ\275L\207\206=H\030C\2755\257\233;r\364\255\271]\321,\274\027\251\256\274\251k\237\273\026q\032\275!\355\020\274\264\363S;\027I;=[l\220\275\007\345\272=\350\225\004=d\206\317\275W\261\250\274\034d\263;B\360\236<y\372\342\273\203\256+<\2268\272\275\271\247\215\275\252\024\'=oN\261;\004g+=\217X.=\n\022\217=\241z\020= \356\363\275\"\253\354\273\200\270f=\314\203k\274(z\227\274\2277]<\n\322\271;;]\231=\003F\2409\365\237\024\274\267\2259\274\263\240I=\364L\224\274b\366\347;\330\340n\275)+J=\232N\250<f\006\007\275\2351\224\274\320\253\026\275\235>i\275\321\315\215\274E\024\271<\301\007U<i\377\033=c\006\020\275\330\355\001=\320<z\274\214\"A\275pD\326\274\036\275\021=\010Sr<\205\002\267<\363\010\002=w\006\337\274\252J%=\030M\203\2715O4\274/\022\347<\320\024\244;\243\311\354<\232\362h\275\"\264\345\274\250\241X\275\275[t=|F9<\005\275%=(Z\023\274e\375#\275\010\233\220=\276\326 =\005\242C=\3443\027<\020D\313\274,\022O=\332?9\275\226B\032<G\227\177<}\205Q<~\247\237<\355\361\242=(\016\375\2742]|\275y\207u\274*fV\274\002b#;\256\027\233<\r\014e\275\323wD\275\235\347\024\275\213qQ\274\321\273\246=\344\224n=\327h\240=\362\316 \274H=\"\275\266\365p\275;N\207\274\024\243Y8H\271G\275\261\357Z<\254r\255=\343\314\277<\277|\354<\017\034\241\274Q\256W=\'\342g\275~\222\320\274Q\020\277;`\030\241<\270\227\337\274\355Y}\274\004v)\275XGF=\031r{\275\200I\200=\3641\253\274\342\217\013=B\326\217<]\t\202=\375l\217=\302cc\271\347v\260\274\007\236\335\274wR+=\300\337\205\275\234\235\222\273\303z\014\275\377\355\036=\004?\240<\267\246:=6~\005\275]G\217\275\204v{\274\333\276\026=_)q<M\245\365;\000\323\324\274vu\301\271_\2030\275V\r\025\275n>\225\271K% \275i2\332;z=a\274\340\310\271=\252\t\345\274w\0035=\304\254p=+B5\274`xe=N\\d;u6d<$\226 \275\340\257 ;n\362C=\351\001_< \355\226=\361\204\215=&\003\000>\203\275\376\274/\336Q\274\334\342\262<\317{c<Q\221\021\274S\2135=d\331};\021K\036\275]\211\"<\317\225&=\000\200\217<\246h)=\202As<q\005\014\275z\311\'\274\345e.\275f\273\036\273\216E\236\272\307\235\262\274M\300\320<\320C\347\273\217|$=\3532Y\275\t\017\240\275\323\226*=\002\024\220\274#8\370=d\177\016=\036\3231=\370\031*<\t}\217<j\370\007\274\236\017\356<\003wU\275\312\303\336\274aA*=\226>\004\274]\214\321=\267\231-=L\340\"\275\301\212m;\250\260\034\274\330\t,\275\230\356#\274\005\033\337\274\256W!\274\336\346\370<\262:\t\274^\315\242\275\226\217\375\275\020mq=\222\013\363\273\025\200\206\275\365\315\027<\006\346=\274\242o\036<U\371\344\274F\203u<T\275\277;.\251\307\273\276\022\215=\345q\232\275\210-\231;?O\t\275t\007\252<\0334-<\311ml=\330\270\343<\231\275B\275v\342\007=~\211(:\237D\274\272q\215\245\273,.`=\013\272y\275\260\232\365\272a\233\016=\266\274\317\274!\324H<\270\265\337\274\243\013%\274a\365/=e\333O\275\212\234\343;A\315?=\353aQ=I\257\231=J\313\263\273r\236\001\275\212\332\206\274\217\300\003=\"8\227<\316h}<\014\377\222;5w\304;\350\227\256\275F\274\205<\272l\320\274\330z\302\272\236\023R\274+cZ=\254\331\260\2745\270\233<F\371\370<\t\301\263\275\206W4\274c\307\250<\245\021e=\233&e<\224\2414\275<\244\027\275Ih\276=\004\324n\275k\2012<\261n\356\275\241<\232\274;\204L=0\256\362<\245t\017\276@\207\024;\277;\265\273\225\335\264=\t\245\326\273\374\350\264\275~I5=cs\033;\3302\r<_\004\350=f\366\217<\203\203\212\274>\237\000\275\243*\323=iI\335\270\346\251\342<*\336\274;\305\035\225\273\010\'L\275\023\322\025=\270\243\213<g\341\t=\362\263\373\272\220\037\002\275\260(\206\275!az=v\302\332\273\221\035\037=P:\321\273]\244r\275\205\265=\274\0048\217=\324\306\264=S\272\232<\300\220\204\274A\2318=7\234F\274Vk1=\212\3310=x\032\245\275V\005M=\203\3709\275\037\347(\275}\210x<9\013\270\273Km\231\274H\362#<}\306\216=p\322\n;\245\306\246\267J\007\324<k\276\202\274\034;M\275D\261\303\275f\343\372<\277\350\352\273j\232O\272\244g\233\274\006\242\347\273\213\224p\273\330\365\346<\230\227\017\275\307\353\225\274\365\204Y=\212]\035\274f\215\312<<\341\325\274\204\320`\275\266\206?<\244T\344=9\216\200\274_\301\005<0\322\351=2/|<\013[O=\"\025\327<\250W\241;\245\227\252\275\351x\206=D9\027\274\375F\223\275\300\200\262\275n2@=\001\235\033\274_\324\202=\016\355u\272,7U<\203\357;\275Q([\275\223@\032=8\315\300\275K\344N\274\213\306\001\275O9@=\360l!=l;\235\274\327L@\274]\253\026<\273[\221\275\324#\360<\276/\244=Cw\007<&\303\240=\264Oj;F\361\363\274\r\2222=wy\035\275\364\205^\274\335\217G=\242\203\224\274\350\315&<5a\330\272\250\246V=:\344_=\"\333l=2\\\300\273\253\306%\274B\320\237=\025\377\204=\267c\265<\337t\032\274k\251\221\274\267\301\034\274\306\r\355\273\201N\243<\202\212}\275\235\0059\275\313\210\005\275\366\340i<*\301\313=\"\254\037=\375u\306\2748O\223\274\025\377\344<\305\203\267<\243\310\257\275\036D\233\274[\305\367\275\366\ta\275\332F\026\275C\273f\274.\310W\275\270\312\307\274Z!\253<\247\274\"\275Y\327\223\274\342\367\337\273\236\367\367<`\337\027=8Zc=-ZE=\324\007 <\030[\331\275\263\301\211\274o_\241=f\250\203<RI)\273%tZ<\276\023\213=\365\227\340\274\303\254\001=z\267c=\306W\206\273x)\351\272\352C\230=E<\006\275\337\027K=\326\203\270\274Z\357\211\274Rz\010=\020@\240<\000\202\217\274N\177\365<\201\271H\275\"\250P;\\\324R=K\344\340=~\327\236=\3536\316\275\346\210H=\224\330\267<\262\265\232\275\344_\021\273\325\311\227\275\244n\020\275\360\356U=\177\365\365<\204\371\265<\312\260N\275\266\302\317\274]\322\'=\246\025\032\274J\303\250\275\311s\026=\202\311\207\275\221\367\025\275\315\0269=\217V^:\236\032\336\273\243$X=6p*=\272w\257:\272\215\2529]\001\265;S\326%;\030\323b=\327\r\210=$\226O\275k\032m=\t\232\256\274\354\367\221\275\242\264M\273e\236%\274\300x&;a,*<\313\030<<\361^\005\276\363k\247\273\247\304\214<\025Ww\275\340\226\306<\2048\014=\031S\214=\374 \270;\205.4\275\375P\033\275\022K\031\274b-\206\275\r\020\353<\212\3750\274\215\354\025<2\243\355\274\021q\350\272\274{\305\275\250\213\273\274\342H\312\274I,j\275!\322\330<\266\347\361\274K\317u\275\276\346\364;\247\227\302<$\246\236=\201\227T=\031b\002<\30534=\277\010\014=\003/(\275\356/7\274=\032\242<\206\360\271\274\255\340X\273\373BV<\306*\027<_\353\\=\243\312A<\035\351\001\275R\243\024=\222\330\277\273\357XJ=\233\270\246\275\376\372m=\364\253\230=\234\342\017<\177?\331\274\327\r\355\274\025\272\257<\013U\312\275_\010\377\274nU\243<w(\253;\333\365\'\275\035T\264=\003,\222\275\030(\020=\232W\375<\302\266\020\274A\217\315<\360\020\230\275\375!W<\013.\350\274\r\025\002=\257\362y<\3216\222<)\221\005<\216\374\306< \347\273:#`\231\275\323\207B=\025\000J;\326n-\275e\351\350\275Je\251\275\256\214\241=\227\303\264\274YJS=>\262\022\275d\227\032\275\3144u=\256\231a<\321\375\007\271#\317\260=,\265q\275\315\335\316\275\200\000\206;\265\332\227\274&\035\r<\005ij=}an\275\314#*\275\202.\315\274kP\225=\3412\"=/\033\205<\004\371A\275d77\275\271c\306\274\371\030\337<\2227\002<7\353+\275Z\341\372;Pn\026\274`TF\275\233\2560=\360\036\200<\367\'5\274m\253\241\275\241B\236=C\024!\274\263\321v;\365\373@\2753Q:\275\30543<O\301\361\274\216O,\274 2\020<\362T\367<\327\373\216;Z{\370\271\263x\306\274r\251\231<\tt\254\274\273\240\005\275\302\331\360<\270\200Z=_\250\345;Wx/<\003v\017<\207\3721<o\255n\274\274F-<YA\250\273w|\226=\276gm\274\372\221\371\273 ~\227\275\360\232\267\272v\366~<\335\231\231=q\'\000<\004\211\256<\312y\003=\353\025\2158\253\037\211\275\n\202Z=\337\277\031=B\321q\274\361\357\201\275\271B\210<m\341\301\273e3\202\275\253=x<\205FJ=\245\365+\274\271\247 \272\305\311n\275\211>\224\275\262y\374\275\272\247\306\275\225C\243<-\333-\275\331x\246<\237>\224=?\274\202\274\376-a=\277v\345\274\0174>\275:&\232=\020\345>=\3400\214<\254L\351<Sq\003\275ct\310;\217)\341<\210\254b=L4\327<\212\032w=\n\004q\275\n\021\257=\237\352\030<\206\0048\273t\361\327\274\362\310\334=\271\343\037=V\245\302\274\256\320\000\275\271\353\360<l\364u\275\004&;\273s\370\367:\264\177G\275\334/(\275\244\303\303\274?\022\n\275M\333\317<\013\327\303;\314\271\335<\337w\314\274`\260\304\275\322\360\341\274.\177k=\326\027\026\2757$\275<Y\'\257\274q\323\037\275\350/\007=\226\234\222=\223\010\251<%s\267=\034\332\200=n\013\026\274S\315\206\274\374\"\356\274\264e\334<\242\027G\275\211\263]\275\303\331g\274(\241\227\275\330\257\216\275\2453\203<\210TL\275\350\034\027\273f\346\327\274\035\247\207=)\026\022\274f\274\024\273\2405#=\035\247J\273\204\326\367\274\336\232\335\274\020\220\236\275nWY=\336\251)\275L\'\036=\350\023}<\347\020\202\275\ts\324<\251\242\254\275\224\311\r;\2607\022=\234q/\275\213\n\303\275\346\247\302\274`\233\354\274e\2224<\214a\326<\201Sa=\2563\315\275\017O\212\2758\021,\274v\0015<\354X\260<\350\211\000:\246\336j=\332\275\344<\216\213\003\275\311q#=i\2255=9r\327\273{\202\372<\361\375\204;\200\203\026=\\\215\026\275\"\344\020\275]N\020=;\251\371<q\246\277<\023\017\217<U\347\334<&Y\020=J\016\373\274\275\336.\275\356\325d9OG\205=MR\316\274\346o\202\275R\033{\274G%\350\275\222\354\352\274U;\212\275\200\235$\273\245\177;<\270\020\212=<\"\031=\304!O\275\373\016.\273\027Z\230\274\237\243\242=\276\313\237=f\241\003=Rn\252\274\007\352\255\274Q\n\236\274J\2260\273*}\003;t\257\207<\223iH8\036\235\217\274^\352\264;Q\320p\275\376\367\004\275\322\352\260\275\234\215\016\275Z\023\372<\3131\016<\325(\347;\n^\023=\204\212\244=\000\031\217<\244\2123\275\235$P\275s\321\302\273L\025\022=\370b\222\273b4\205;@C\t\275L_I\275\240\207\246\275\337\\?=\320[q\275\307\252\337\273\007(+\275\315[,=\246\'\226=S<\034\275[}3\272g-I\271P\026\004\275\007\266\007=/Gg\273\254\350\311<\347r\214=Z:\366<\304\365H=6F\330<?\263\020;\n<\035=^\256<\275\322\262\252\274M\334\365\274,\346\010=\026\036\034\275\277\315\003=\000<\031=\351\177\301<C,\207=\256\355:\275\002\253\216\275\345BB\275\\\377\263;\205\255X=\337\372\200\274\013\361\376<K\035\242\275\247\275\034=\215\335\231\274\325\332_\275\320D\262<k\360\212<GB\245\275<\376\032\274\374V\246\275RB+\275\022\330=\275\334\017#\274N\325+\273q\000P\274i\352\253=C\373\013<\2433I\2733$\340\273Ub\274\275\207\006\236\274*u<\274\3368\222\274P\'N=m\3108\275\222\310\3108\014)\322\274iWG=\264\036\363\274\024\307\210\275/\nq=u\371\'=]\213\035\275\264\310\341<\217\234r=\313\302\356\274\310\355\304:\231\350\303;X\254\236;\300\362\300\275Te\235\274\030t\010\275>\372\255=g#\017\275e\005\267\275F\322\272\274(k\031\275\030.w\274m\366\007=\346\032\267\274&\375\236=\327C\260\274\365\004\321\274\322I\024<)/\316<\371\261\301<.\330\025=/\375\234\275A\177\365<\337d}=\017G\000\275\300\205I<\322.\316\273\246\203`=\373\373.=\010\341{=b\000\207=`\224\244\274f-f\275\020\007g=\034\335\007\275\236\222\303:\240\304W=5\205\026\275\266\332L\274\246\0143\275\363\376\352\274!\300\263\275]N\343<\213\271\374\267\300sF<\216\334\320\273/\r\031\275\374&%\275\303\302$<Q.\245<\225T\203<\313oI\274\321Z\270=,\000g\274}\374\276;[h@\275\030\003\277=>@V\275\330\242\260=\t\006H\274\215I4;\'6\252<\254\023F\275 &\327;\020\n\235=\253=L\275L\001\232<-]\217;\007\007\"=\331\031\304\274{\036M=\377\3674\2757\027\007\275-\372\320\274:\261x\274\250F\254<\344\345\231;&\210B<V\"-=(\201\325<\023\377\220\274\343\2025\275\313#m<\247\032O\275\017S\033\275\3422\207=\274\202\027\275\205e\220<\227\017\373<\016WU\274\337\207\376;5\2066\275?\377\252<\373\217\215\274\020\262\277\273\004\004R\275t\016\260<\247;\343\274\2504\214=p\022f\275\264\322s\275\271}\223\275\272\242q=\267r\205\275\2222\262<I\030\301<2\237\214=\023t\245\274iK\020=\257\245\247;h@\217\275\224s\306\274\014C\315<\265Z\363\274\035\013\217=\004\353\004=\372\255\257=\202\333d=\237\317\\=\274h\326\273?\225\301<O=\034=u$F\275m@\253<\255\327:\275\211\2324;AO\234\273\035M\263=\214\303\221\275\236\362X\274\r\340\266\275\270^\261\274\214\341\006=\355x\333=5\337\036<\n\256\300\274]\377\233;\376C\243=\275\227\211\275i\320\320<\315\371\262\274\343\341\246\275\2009\310<\310\361l\275\016\021.<`\376\227\275\002\341\352<\177r\355\274\2321?\273R\314\307\275\352 \002=ma\261;>\316\027=\267l\314\274\266\345.=T\007$\275\017b\223<\261\207\030<\307c<\274\236%>\275\247\315?\275\335\224\217=\002\301\210=\244+\034=\344\255\327;\243\323\036\275\371\005\214\274\214 \352;g\273l\2755\031\335\271\021\271X=W\010F=M\375\302\274\020uB;\016\263\032\275\004D\321<\323\r\321\274\232i\340<~m\n\275\310\225\031=\000%\267=_6\273<:T@\274\210w\024\275\227dV=\014!\307;\005R\276\273\314\027x=\3244\203\275\264+\333<\265\264J:/+\370<\206\200%\274\237\027!=r\007\260;\317\312\316<7\340\277\272\203M\336\275#\002\310;<6\267\274=>\'\275gW\023\275E\333\325<X\227\370\274=\200\026=$\302\246=4\216\203=]t\230\275D7\237=Q\031\242\275JC\000\275\023pi\273\364\374\205\273\210dy\275T_\241<2H\226=\006D\257\275\254\030\207=\206/\361=$\000\t=\241\202V\275\026\351+\275\375\372\331<\256\222\273\2752 2=s\317\317\274\252?><ob\207\274\227(#<\023\337p\275\226\336I<\205\356*=\252}I=\361\252\213=/)\301\275P\353Y\272\32535=\263zR=v\250\222\275\0375\220\275\206\243\250<\305\236\212\274\371\274\272\274(\373\205\275v9\361<d\002>=?Z\204<\003r\021<QBm\275\316t\211\275\304\035\n=%\t4\275\233\361\002\275\242\257\274\275\244M\001<\256\2030\275qX\232<\020\331\230\274y\017\256\274\0259\327\274\014\307\234;j\3342=/\005-\275\213=\205\275\014\t\251\275{\320\333<\255\265\302=O\305g;5\224\256<P5\r\275\036\001\221<&\227R\2759\275\205\275\035=\3049s\306\016;\303&:=o\227\364;\256\304\006\275\277\3352<Z\221T<\007m\235\274d\371H\275A\254\315\274g\306\242=}6\322\274\244B\020=\210\324\375\273F\307\211=\231I\005\273:\030.<\317f\352\274qzH\272MS\330=R\302\274;\264P\207=3C3\275\031\302\r\275$9\"\275\316\264\370\273S\017\344<\\\321\344<1\323\213<Y9><7\316\245\273-:\017\275\370Y\365\274\375i0=\216\252\n\274\003\244\321\275B\377\265;\360\264\226\274\212\347\245\275\210\0033\273\235\036(;\305\037\325<\001\016\014=\2337\343\274\351|\223\275>\3141\275\302\272#=\026;\001=\0337\367\274Mc{=Yp\t\275\223FJ<\310\006\264\274\315\237h\274&\265\243<\374(\241\273\314\377G\275C\030q\274\025\027\234<\375\373\362\274\3218r;\346\376:\274\321u\351\274\255\245f;\231\267\t=.\372\230\274u!\016\275&\355\305\275\334\022\202\275)[(=\236\2356\273\236\334\227\274\233\233\227\275ev\333\274y$\210=\014\353\363\274\033^\206<\215=\240\275&\203\226\275?z\344\274\026\370\327\273\355\030[\275\364\2016<z\250==\231\261\000=\003\337\304\275\033w\307=v\332/=i\313%\275\271:\370\274\013\265\260\271\352?\322;AS\337=\233j\344<\370\343H\275\371g~\274\352\323\231;\352X\224\275\005J\236\273{\355>\275}d\306<;>\274=$\262\'=t-\215\274\335\202\271\274R\311\260\275^e?\275~\031\212\2748P\323;\014\227\214\275o\032\t=\247n\355\273&?\220\275\317\270\260\275\365\331\361\272\270\333U\275\256\200\201=\217\374u\275)M\240=R\300x=E\323\236<\233\331\301=\216\030\347;\025\237e=\262\370\243\275\267\020\225<\372KR\275\036\267\216\274\324s[\274o6\344\274`\210\361<\226,\252\274\001\000\200\271_\212\245\273|\374l\275\010`\270<xh8<\241\326\274;\270U.\274\220$\007=\216\366\006:`\347\252\274\023-\007\275B\340\n=\'\023\t>3f\024<\200\\\204=f\330\206=\241o\021=\224!\211\274f\306G=p}\261\274\244\202d<\216\036\313<\212\247\220<\341\263G<\307\377d\274|#\263<\233\213\300\272\022\267(<\376\023\202\275\024\306!\275\002\232\030=\003\357/\2751e\303\273I\001\262\2719W\211\275S\362\213<\232f\233\273a\334\231=\26415=\r\376p\274\254\350\366\274\261\335\235\274e[\310<Z\327D\275Y\n\265\274\203fY=\327\000V\273\021\000\223\275\021|\3159\236\226Z;\200\014\204<\037\332\243\275u\240\026<\373\216\355\274\253\206*<\333\032\270=C\207\215\273\036uL\273\211\020\265<t\3227=\302\237\000\275\376jm=D\226\265\275\353\302[<\235\361q\2749@2\274\306\021p=\312\242\214<`Bd<\376\353\035<\016H\250<J\212\267<e^<<\353\335T\2756~\244<\035\na=\000nr=\242,\374<\327\343/=\215\330N=\364d.\275\232S\317\273\033as<d\016\377\274\271\345\313<\375w\235:\345x\331;|\331\363\272\364\214$\275\326R\020\275\314Ul\275\020d\013=\0233\000\274sH\001=\322\002\235;o\'-9\263!4\274\020\247\322\274\033C,\2742\330K<\236J\225=H\272c\274\366\364\177\275z\371\215=\326GO\275\034\244\006;\270pv<\031\261\266<?\223\032<g\301|\275\206a\363\274\375,\255<\242X3=\317\207\005\275\363\256\326\275\305\177\025\275k\237\245=,\332\232\273\\6\224\273$\230\264\274\350|\265;@\311M<%\257E\275\037\371\201\273Q~\265\274\202\266I\275\000O\317<\265\243\306:\333\300\007=\'M\274<\344\371\224<D\006\001\275\350\250\n=\201>\006\275\332\265\\=\247c\223<^uC=\315\t\332<WJi\275\364\272\351\274Y\261\031\275%\242\202=\262\262\001\275\224&}\275\253\357\232<\373\315M<\262\375\014=x\307G=\231I}< \3208=\352\267B<a\302\267\272\240\300\212\275\013\207\374\274_\024\241\272yes\275j\350y\273\275\017\271\274a7\244\275V\026\303\273\350\315\360;L\335\026=c\205\363<X9\031<\223\347\304\275\347_<=\202\331`=\2112\236<\035x\221\275\3218\326\274\353\260Y;\301`\315=i\276\220\274\242l\274\275N\330\367=\346\252~\273v\013\027\275\276S\265=!%\000\273\301\265\306=\264\tQ\275\007=t=\276\360\316\273E?\017=E\256\253;\334\261\232=\n\276==\323\304\206\275\244\361\317\2720\252k<F \314\274\230\220\241<d\202\211\275Q\346]\275y\244#=\023W3=\221\247\210\274\256<\236=\274\030o<P\324\204\275\376\0334=\312\202z<\032\262E\274@\370\025=\374\032 =\334\006\245<\263\025\r=_?\037=tWU=A\340\357\275\374\000\343\2742@\002=\257]\377</\367!\274\212\001\262;\236D3\275\017\230\310\275y\302\007=\001S%\275\271~\004=\323\276,\275|\037\200<P\341A;\264\270q<,b\321\2744\027\331:\025\375\265<\021\262\025=j\276\252\275\3100\263\2740\243\326\274\361t\253<\000\032\363\274\345:R\275g5\377<\201\277B\2753u\266<\037\356\362\274\263\234\032\274^\320R\275*\275v\274\243\234\362<\350\003\361<\030\002\304\274&V{=\204\310\234\275\350\272\2608\t\267#;.\271g=K\345\204\275\372l\203\275j\342\237\273\341\226O<h\274\000<V_\025\275\"\247g<\277\035\36580\330\014=\017O\301\273\020O\240\275B\177\264<I\205f;Im\024\275u0\335;<\273\257\274\2379\320\274\007\271\003\275\262d\r\275^;\323\273\337Ya\275\350\250\"<\302\357:=e\3215=\252\217\334=\304x\230\275\241\231\"\274\356\211~=\211\224_\275\255\276\033=\312\304\270\274j\320\017<_<\224=t=\233\274\3133N\2710\2520\2751\367\\=5\277\033\275]\023W<\363\313\342=\034\323\205;Qa0\275>P \274\273\347\264\273\"w\322\274\376\304\027\275\234\244c\274\2400p=\316{}\275\210=l\271\023\354V\275\277t\234;\022\227j\275iu\313\274k\243b\273\254\323\001\275@V\320<\245?\007\273RI\014<\245\365\306\274T\353$\273\013\212==\330\246\002=\217v\236;\'\311\222=\361\372\361\274\025\324\022\274\211\266\243<LT\256\274\nuq=\330\212\340\274\315\271\003</K\246\274V\201W<u\265\357\273\300r\037<h\343\225=!\300\215\275\217x\330\274\304\362\010\275\260\216\227=\351\215}<C\r\031=p\221\370<\240.\003=\351\\\341\273\267,\302\275x`I\274\372\225\352\274\035^K=!O\030=\004\204\341\274\265(\032=\232$>\275\362\362K\274G+\260<+\373\251\275\264}U\275OG\037\274\017(.<u\216\257=\302\317\342<q\3207<\274\346\3168\345\355\240;G\326\376\2749\007f\275\275\'`=W\0305=T\312\007=\251\222\177\273S\242\357\273\221\\\356<\023)Q\275\005\376\022\275Ft\205\275\035H\334<;S\003\274\335\036\032\274\347\374\031\274\270\225Q\275\230\004N\275\\W\231\274\250|\30396u\215\273\274j\216\275\004\357\320;\027\022\203\275p\304U==\356\265:\372\202)=0\311\311\274\227\'\004=\0144\343\274^\341\216=I\312\302<O\024D\275_$\230<\263\365\244\274\030\300@=2\003\365\275I\215\300\274 ]\334<\301\250\370\274a ==\037\025Z=\265\233\226\275\346\274%\274\274\363M\275XC\365;\265\230\337;\362JA<\361:\023\274\013G/=\371\250\007\275j\324=\274\332\3326\275M\276\300\274i=\210<\" \323=\244\242\276\274\264\000M=C\224\227=\377\300}=\362\370/=\355\020\274<\371\357\326\275\325\372&\275<\211\026=\202\345\215;|b\215\275u\337B=\033\304\272<\002$K\275+\373\t\274\215\"\210\275m\343B= \347\026=\360\244];,\007\206\275\0214\020=Oz\n\274F\370\232=3\213\035=\0018\232<\256*\200\272\222\341\256=\010\2106;\2233:\275\321\241\034\275\246SH=8\203\\\275\326U\032\275l:\005<\t\374\341\273\016x\r=J\312\274<\277\306\255\274\364\245\252\272@S\274=\206W\340\274\036#><\335?\277;\247\312\210\275j\323\243<\375\\_<B\322\016\275\230>X\275\203]&<\357m\374\274\372\356.=\226Yg\273\242GD<\256\006\214\275\031$x:J\312$\275Y\242\203=\314ip;\340\017\307<#\024e\274+:N=a\353\217<O\357\246\273\030#\233\274\3649D=\350_w<\315)f\274\0207\313;\320\247\260:\006\235\236\274\225\314r=yY\013\2758S\3509\2465\020<[Y\200\275\026$T=\'B\345\274\346\221\321;@\337\226<\271\261o\274j4\273<<\200,\275\260c\270\274n\250\361\274\177\2045\273\034\300\006=}\'\210\273\211Rq\275\337h3:{\341\217<\346\241\310<U\251\027=\216-\243\275\321\364\002=\262\255/\275m\2469=\262\t\225\274\026\300\027=H\203\222\273\315\"\210\274\376\016\245\274\247\220>=\242\352\227\274T!\000\276\356\203Z\275:J\272\275]\254\226<h\361w=\3330\000\276x\344\177<\272\243\233=\250\\\317\274\357+\350\274\0166x:J\370\215\274\030\276\203\274\001\365\272\272%R#<\255\311Y<\377#\206\273b<\244;\3069~\2756fJ\274\336\034$\274a\220j=\306\037?<<\355\335\273\033W\221<w\314\344=\247\304\243<\214\335\257\2757kh=\2674\276\275\265\257g\275\311\242[\275A 6\275\340\263\003=\024\2157\275\325-\r\275\317\301\027=\205\340\363<\262J\t=\377\366\301\275\2307\266=\323\3049\275\t\231\307\275:P\r\274\330\030\303\274\216\202`<s\341\216\275P\253\263=.\026\206<O\312\216\272G\207\307\275\311 \033=t\\\203<\227\351,\275\223&\237=\322O$=\227;\005\275\022\320F;gx\332<=#\305\275\276^\026\274\032\357\346<^\325@<\323\311\277\274\303\r\006\276:\202U<\034%\322\275\013\303\216\275\323D\243=\026\0267\275w\363\336=\253l\327\274>\366!\275\034; \274\021[o\275d\304\225<)H\221\275\366\216J\275\231v\303;9z\t=\014t\226\275\301o\345\274e\262d=\334U\333\274 \245\004<0\206\027\275\342\203\206\275\345DG\274\270\2455=\363\336\013\275Z(\"\274\267\257\351:\222;\240\274\306J\232\274\371\342\213\275\014\353\321\273\034\341\373\274\264\301\337;\252p>\275\r\306\357<31\200=\217u\342\274\037\013w<\370\'\317\274\341\322-=\203 \217\275-)\271<M\226X\272yJG=m\370\203\275\263\310\007\275\007\221\030\274L\351\035\275\321\246\314=l\\\r>\301\235B=*\270\002=S\3152\275\017\373\350;\021(\035\275T\331#\274\207\267\t=\343}\271\274\034\365\215<\241\316\222<\205LJ=R\367\301<\355\306\277\274\252\327\223\275\211\020\267;\226\323\224\273s>)\275z\342\210\274#\206\223=\007\234\272\275\354p\274=&u+<\230\031\342<\307\341<=\343\022\277\273[\342\010\275\272\\$\275Z\003S\273\222\025\225=\214\372k\274:\227\213\273uR\233\274\327\216j=]o\206\274\3769\213;4\244\021=0Y\360\274MK@\273\334\236n=_\277;<\362\246\032=KR\317\274\217In\275\236\364\\=$m\211\275\331|]<\315\365~=nZm;\245\017\032=\361[f\275\347\200\006=\206e\031<DV\322\274\354~R\274KI@<d&\035\275)(\257;\376\002!=\234pk=7!\022<U\256\264\274_F\317<\254\"\"\275\355\263\302\275}\026\001=\3509\330==f\217\275\242\202\270\274\377\304\245=\315\371\250\275\002\217\300\275\311\336\241;\006f\007\275\305\027\027=\275\334\325;\343$\001\273\360\330\256\274i\242$\275v{E;\334\265\252\275\014Q\024=k\325\351;\355\365*=\273\227\232\2737\001p\275\n\356l\274|\303x=u\250\';\327A\306\275\256y\013\275\340\177\203\274Y\377O\275\263\345\207\275c\263\351\273#\025\325\274\326Z_<\366\003\340\273\336X\313\274\227<\216\274\325y\233;\004\355\214<\034\322\035\275^\224\224=\000\327I=\"1\322\274+@\223\275\354z\272\274f\226\365:=\256\275\274j\017\203=f\202H<\231\354w=\031\300,=R\354!\275\224\306\267<d2\311\273\316\3204\274\322\246\326<x\230\271\274\305\243\025=\0371\036\274\016E\013\275\311\022\004=f\005\336\274&\303>\274>\300G=\235\224V<\020L\021\274\037dI\275/]\264<]\376,;\225L\201:d\034\273<f\261\"=\352B\204<\334\271\343<\260\317\203\274]\201\251\274\016nl; 7\303=D39=\225\244B=\375\373\340\273\005\335R<\342\020\020\274R3d=9\201\302<8]\306\274\3012i=\217\320]\275\n\202i;\354\242\350=2\177\216\275\340mW=\350\337h\274\t\320\227=x\244\002\274\301\223m=\316>P=\3747\225<\'\233\214\274d\364\212=\315\033m=1\360\265<,U\221< \234\243=\372\367@\275s\304#<\265\211\027\275\353*\364\275\212\271\243\275\327h\304=\351\350\000\275\214z\264\2753\264\252<\025k\323\273\302\275\204\2755\336Q<\332l\330<N]J<\365Ek=\2213\"\275hJ\247<\276.2\275\212O\003=t\263|=H6\252<\251\341L\275\223MJ\275\344\031*<3<\254\275\313\313\276;_\\\332;\327\216\022\275\224T\244\273\236\315\027=\007\230%\275\234W\330<c\271Q=\336\036S\275;Wn;:\032\325<\262=\201\275\212\007\254=h\'\325\274\013\303\'\275\336=\017\275\273\257\213<\235\257\227=\236\037\217\275\354D\020=\023Dx<\361\010\032\275\275Z=;zs\236\274\323\372\315=r\333\346\274\\\273\267=\200\022\320<\254\260\023\275\313\007\306;;\203\250\275\214\260\356=\302\224*<\373\375\363\273\304\234\346\274\316\000\302<I\263+\275-\253\010<\242\256s\274\027\251\316<\372\362\304<\201\241\276<./\253\274:\0048\275 \\\276\274\331\217\207=Yv!=\"9\020=\314\244/\275\025a\247<\220\243z\275\3121\256\274\346Z\257\275E\260\031\274\332\250\251<\231|\301\275\032\216s=\324\264\206=I\323\323\274\271\376\010\274E\177\260<\001\rJ=O!\320\275\355/4<\256\375\023=\227\261_<\255u\236\275\352\331\213\275\303@\311=\334R\017\275a\275\361\274=@\013=\1774\342<\010\013\025\275\ri\237<\206FH=\030\364\203<i\025F<\013\340A\275P\027\037=\242v\017\275\335\020\005=\235\357\241<,\'W\275\313\006\013\275\335e\026\273\010u\350\275\220jA\275{\327F\275L\2333=\257T\r=Bd\025\275\216\314\324\274\n\224g<u\270`\275\000\343\004\275\215\223\263\274\201\277\343<\204nk\274%\3751\275\274\3512\275L\306\325<\375\263\025<\000<\212<\365Mg:\240\255k\274\340\365\352\274vUM=\314*\026=\275i0\275P\252\214\275 \271\334<\3101O\273\233\241)\272\360\230\251\274\021\037j=v\273r\274\354\373\320<D\n\311\274\022\202\211\275e\027+\275\303\322\324\272\\Z\210<uk\023\275Wg&\275%b3\274J\274\013\274\351\344\363\273\250D\327\274\031<\275\274<\037\223\273P\374\377\274\250\226\275<\226\026\210\274\263\340b\275Ei\025\274\214b\030\275\006\034h<f\373\311<\320C\032\275\276\233A=F\357g=\363\250R\275</\355<\344\305\364\274\232B\"=\263\031\262<MBz=\267\177\261\273*\\\376:+\263\024<\227\224\363<\327^\232\274/\371\230\274\364\374\316:n\3318=4\233{\272x\275\"=9\033\"=\306\262\246<DQF\274m\325$\275\300nK=\213H\215\275\206\376\247\274Oes=\3306\246\274u@Y<2\273\343\274\231l\270\275@g\272;\020\337N;\353\311\325\273^8l\274\364\303\215=\232\2737\275\317u\236=\327~W==\322\014\275N\272h\274tW\021<tz\224<n\221\257\273\026\220\207\273\256/\007\276]\344\303;>\222\265\274\345&\313\274q\256\n\274h\322\266<\366\236\007=\243W\272\274h\365h=\226O\312=>\226/\2757\360\321<\033\222\000>\326\261\225=P\002\'\275\262\372\376\272\302\342/\274o\3502\273\037\357<\275\273E<\274\231A\004\275_Lm\275?\031\001\275\354\317Q\275\345F\202<\005\205\036<\232\2037<\221I\212\275\231\301\013\275\261\307\207=H\210\301\274\301\304\256\275-\313\004\274\373YG\275C\006&\275\370u\261=\332\221Y;V\376\036=\"#\n=b\222\200=\313*k=.\350d;C7\354;\243a\\=\355m =\373\024\216\274\33769<\327\304,=\315H\362\273R\261\310=\017\216\177<\266\215\031\274\327\005\301<\235\202\303\275\274\251\270=$\026\n=\022\315k=\252\3622\274A\351x=|]P\274\210\256\234=\370a\262:\300\200\023=\262\010\027\272j\204Q\274\206\330\371;x\024L\275\314\2772=~\302c;I\204\374\273\230\tw\2759\r\314=\237S\275<\001<\'<\200\314\\<\317n\233=\240\246\027\275bw^<W\\\036\274,\346\321\274>\024/\274\251i\317;\240\0043=K-)=\0074Z\274\206\004\020\275\330\356\037\275J\036\300=\252h9\275o\177$<\224\244~\275\317Ui<\205\214\356\274@\343\274=%\230\235;K\256\030\275\342M\323\272p&\216=\300\373\213\275*\270\216\275i\000t<\301|\214=\277\210\025\275^\215==\2469\306\274\215\027\004\275\257(\206<\273!\\=\334&1\275Dz\202\275[\345\333\274\360\320\017:k=@<\020QE\274\343<\373\274r9\177\274\244\321\n\275\250y\033\274\243\203\013\275\341\026\201\275p\266z\273mt7\2757w\022=\014\257\004=\312\277\036=\342\255\276\275\231\021\300\270,\2628=Y\277\003\275^-\033\274\251\335f\274\0064\014\275w\343\220<\334\251\375\2745>.=E\337\212\275\3127\320\274\372\315a=?\222\250=\335\243\010<\345\007<=\017\341\242=\370\003\377<\023\372\235=\317\002n\274\370M2\275\'J\202<\265\356\035\275\207w@\274|\"\253;BA\247\275N\377\"\275e\246\201<b\032a<\302\003\324\274\210\276\322<ft8\275<\000<\275\377\0376\275J\020_=\2741\020\273\200\276\370\273-\211A\274\202\004\332\2741p\220\273\353\246`<\227\362N=\226\034\216=\316\200-<\344\022\331<\237\222\370<\212\251\343<\250T\026<v\0058\274(\201\314\274\235\255\264\274\306\027M\275\226U\325\274\373 \225\275T!$<Q\034f<\363\010n=\307%\r=\t\306\257;P=j=\370C\313\275\t*F=\371m\034\274\010\253\340\274\'\326\n\275\014\360\306\275.\350\211\274`\256t\275\002\026\316\275\321\"\213\274\206\337\302\273d\312\004\273\361Ap\275\352\347\021\275d\\\227\273\264\375\277\274\031\375D=`\022\206<T\365\226<\305RT=aB&=\327R\224=\037+2=\003\364\237<\232H\030=\373\241\036<q\020\231<K+\244<4\376:<\367\262\313=E\236\211<\001n\200;\324\023\024=_*\304<\003\357\003<\010~F=\004\'\227\274\307\\\246<\252X\334\274m\260\304\275S\337\307=\240\232\204:\016\266\256<Q\010\307\274\025\250y=cu\006=Nu\252=\267}\360\274\363\006T\273/\271h=\354]J<\255`\024\274u[l=8h\263\275\237\266\017\275y\020\316<AA&=77\325\274sQ\367;\204\020\252\274\000H\005\274\214\245\266:\200\215\303\275J\033\310\274\232X\336\273G\364K;\343o\270=\233\005\313\273\347\373-=y\0247\275\353\010y\274\247<\267\271V_\261<6%\222\274zu\265\273D@\347<\2461h=4Y\"\273\205\211\033>]\003\354\274\207\004\024\275\301\232\311\274\340\225\377:R\270\277\273R\377\017\275=!\"=-u.=\002r==\355\223w\275{\371\325\274P\236S\275z5j=\203\366\244<R\357\037=l\331\r\275z\2574\275e\020\366\274\366\267\341<\nT-<\004\031\371\275\031z\352\274\302#\242=\023\244Y<UXU=\365o\357<$U\201\275\321\310\t\275CAk\275\312\023d=\256\035\005=\372\377V\275\006~\332\275.b\303\274\033T*=\260\326\212\275^\255\247\2757rZ\275\263\256\277\274+=!\275\225j\000=#\233\002\276\302F\017\275\037\352\014=\230\001\227=\250#\314\272I\277c=\307\025\";\213r\344\2747\303\224\275\250m2\275\016\\\245\275<\"\246\275fd\251\274h\270\017=\237\376\350<\037\360\256=\\s\313\274P\026\252=(\203c\2756s\207\274\213\232u=r\254\010\275\2524\303;r\360\037=\003\3150\274\013t&=\030+\254\273\034\337;=\020\3356<\000\323\227\275\223\"\332=^h\355<$\275\336\274\361h\373<\013\356\306\273OA\216\274RO\022\275c\242\331\274\363\204\216=\016E\217<\360\213\024\2758>D=\203\t\216=\322_]=\300\366\301<\000\r\002=\367\022\"=s\316\026\275Dx\364<\006Y\360\274M\271u\275\\\016\213\274\226?\372\274s\247t\275\315\025\347\274\365\026z\275\000@\246\275\275Vn\2757Q\210=&\211\320\273\220\356\230\275L\345\201\273Z\2324<L9f\275\261\0372\275\321\273\303<\000\004\367<\351a\247=e\366\273<\033\005y\273h\206S\275D\225==\224L&=dn,\275;{\376;\224\204\n=p/\033\275T\220\210=\277c\330\274 `\201=\rPE=\r\330p\272P\221\244\275.\242\352;uX\242<\317v\023=R\003_=\206\301X=\001\362+\275\007\322C\275\004\350\227\275\01691<\301!I=\301\265\241=\371e\033\275q\347\\:\330\001\333\273\265\'\001\274\241\234k\274\3575\302\273\304?\327\274\'c\261;B\247Y;\215^\271<\366Z\325\274\360\371\031\273(\215\253\274\251\274,\275m\312\305\274~Y\003\275[\\4=A\"\321;ox\246\275g\030\021\275.\215\233=0\356\277\275\336\010\";\365M\024\275\234\320\025=\351\005\017=\257]*\2742\316\220\275N\365f<c\030E=\260\023_=\331\210.\275\226\253\353=\371\316\\=\225\370\356\274\261\360\305\2759\257^\273\361m?\274\t\375A=<$\275\275w\347\327<\355=\002=)\374\n\274\246r\266\274\255\250\356\274\376\370\340=\275\245\010<\352\272\332<\342,\007=\325\246\260\275\026\n`;\237\364\322<\264\247\323\275\ra\006;\022\272P<+U\215;W0\212<\322\225\360<\313\036\340<\306\363\235\275\335(\\=\262>\322;\001I\021\275\323r\227<\202\241\t\273\252Z\3479\007\rD\275\275\007\240;*\277\300\274\274\356&\274.\205s\275\260`%=\357mP\274\257^P\275z\353\323\2731&}=~!\254\274\363\354\016<\336,z\273f\316:<\371\026\016=\271\006\264<\007HL\274\307\312\305<\361\2065\275\363\340\245\275&\313\004;\225\326\307<i~\231\273\022\244\035\273l\217A;\031p\322\275\252\024%\274\302>\"\274\000x\375<\2523_\275F\375x\275\344\253\235\2751-\215<\003w\323\274.\210+=\303u\232\274\341h\010\274\367A8=\365\273\031=\037;5;\304r\034=\271\337\236<\313\237\335\27451\206\274\003z8<6\010\000\276\326\336\232\273}~8\275\207\254[=\212\211\335\274\237>\205\275\332I\207<(2}<4mi\275\341K\006\275)\001\201=\222\002\212=p\2059=f\315\335;f\177e\2750\316\217<\373E\203\273\304m\301\273\025\206Y\275\\\346P=\353\313w=\203,6;tU?\275\302\367i\275\354\365u<&\330\312<\310\014f\274\251\373\216<\006w.<\0241\321<\354\271\254<\207\350\007=\372\346\214\274&\\$=\306\352\265\275\271\365\255=\343\214\"=s\260\312\275+\255\277\274\tF7=\247hh\274b+}\273\016\0143\274NDl=!\362\266\273\327Y\306=,m\217=\251\202\311<iZ\314\274\317\214\246<\326\357\274<>\265\314<\327\357\357\274-l\226\274\252_\244<Y,\005\276\236d\233<\227*\266\274\031\211\020\275\267Y\303=V\232\307;i\025\024\275m\034K\272\202\326m<\377\213F<\237\343\021=P\320]\275\016\026G\275X\376\346;}=+<\031TP\274k\320n=\n\241\317\274\320\372\267;8 